{"<pad>":0,"<start>":1,"<end>":2,"<unk>":3,"!":4,"\"":5,"#":6,"$":7,"%":8,"&":9,"'":10,"(":11,")":12,"*":13,"+":14,",":15,"-":16,".":17,"/":18,"0":19,"1":20,"2":21,"3":22,"4":23,"5":24,"6":25,"7":26,"8":27,"9":28,":":29,";":30,"<":31,"=":32,">":33,"?":34,"@":35,"A":36,"B":37,"C":38,"D":39,"E":40,"F":41,"G":42,"H":43,"I":44,"J":45,"K":46,"L":47,"M":48,"N":49,"O":50,"P":51,"Q":52,"R":53,"S":54,"T":55,"U":56,"V":57,"W":58,"X":59,"Y":60,"Z":61,"[":62,"\\":63,"]":64,"^":65,"_":66,"`":67,"a":68,"b":69,"c":70,"d":71,"e":72,"f":73,"g":74,"h":75,"i":76,"j":77,"k":78,"l":79,"m":80,"n":81,"o":82,"p":83,"q":84,"r":85,"s":86,"t":87,"u":88,"v":89,"w":90,"x":91,"y":92,"z":93,"{":94,"|":95,"}":96,"~":97,"¡":98,"¢":99,"£":100,"¤":101,"¥":102,"¦":103,"§":104,"¨":105,"©":106,"ª":107,"«":108,"¬":109,"®":110,"¯":111,"°":112,"±":113,"²":114,"³":115,"´":116,"µ":117,"¶":118,"·":119,"¸":120,"¹":121,"º":122,"»":123,"¼":124,"½":125,"¾":126,"¿":127,"À":128,"Á":129,"Â":130,"Ã":131,"Ä":132,"Å":133,"Æ":134,"Ç":135,"È":136,"É":137,"Ê":138,"Ë":139,"Ì":140,"Í":141,"Î":142,"Ï":143,"Ð":144,"Ñ":145,"Ò":146,"Ó":147,"Ô":148,"Õ":149,"Ö":150,"×":151,"Ø":152,"Ù":153,"Ú":154,"Û":155,"Ü":156,"Ý":157,"Þ":158,"ß":159,"à":160,"á":161,"â":162,"ã":163,"ä":164,"å":165,"æ":166,"ç":167,"è":168,"é":169,"ê":170,"ë":171,"ì":172,"í":173,"î":174,"ï":175,"ð":176,"ñ":177,"ò":178,"ó":179,"ô":180,"õ":181,"ö":182,"÷":183,"ø":184,"ù":185,"ú":186,"û":187,"ü":188,"ý":189,"þ":190,"ÿ":191,"Ā":192,"ā":193,"Ă":194,"ă":195,"Ą":196,"ą":197,"Ć":198,"ć":199,"Ĉ":200,"ĉ":201,"Ċ":202,"ċ":203,"Č":204,"č":205,"Ď":206,"ď":207,"Đ":208,"đ":209,"Ē":210,"ē":211,"Ĕ":212,"ĕ":213,"Ė":214,"ė":215,"Ę":216,"ę":217,"Ě":218,"ě":219,"Ĝ":220,"ĝ":221,"Ğ":222,"ğ":223,"Ġ":224,"ġ":225,"Ģ":226,"ģ":227,"Ĥ":228,"ĥ":229,"Ħ":230,"ħ":231,"Ĩ":232,"ĩ":233,"Ī":234,"ī":235,"Ĭ":236,"ĭ":237,"Į":238,"į":239,"İ":240,"ı":241,"Ĳ":242,"ĳ":243,"Ĵ":244,"ĵ":245,"Ķ":246,"ķ":247,"ĸ":248,"Ĺ":249,"ĺ":250,"Ļ":251,"ļ":252,"Ľ":253,"ľ":254,"Ŀ":255,"ŀ":256,"Ł":257,"ł":258,"Ń":259,"Ġa":260,"nd":261,"in":262,"ar":263,"st":264,"Ġt":265,"art":266,"end":267,"start":268,"Ġ<":269,"Ġ.":270,"ing":271,"Ġw":272,"Ġb":273,"he":274,"Ġo":275,"Ġs":276,"Ġin":277,"it":278,"Ġthe":279,"re":280,"Ġp":281,"Ġd":282,"er":283,"an":284,"ro":285,"Ġc":286,"le":287,"Ġm":288,"is":289,"Ġg":290,"Ġdo":291,"Ġon":292,"la":293,"Ġf":294,"Ġh":295,"ck":296,"ir":297,"at":298,"al":299,"Ġdog":300,"Ġis":301,"un":302,"Ġand":303,"Ġr":304,"Ġwit":305,"Ġwith":306,"Ġof":307,"Ġman":308,"lo":309,"ld":310,"Ġst":311,"en":312,"Ġwh":313,"id":314,"es":315,"om":316,"Ġbo":317,"et":318,"wo":319,"Ġto":320,"all":321,"Ġtwo":322,"rou":323,"ss":324,"Ġpla":325,"ear":326,"and":327,"wn":328,"or":329,"Ġplay":330,"Ġj":331,"Ġth":332,"ra":333,"Ġboy":334,"irl":335,"Ġl":336,"Ġy":337,"Ġgirl":338,"ite":339,"ed":340,"Ġwom":341,"her":342,"on":343,"ch":344,"ut":345,"Ġwhite":346,"Ġsh":347,"Ġare":348,"um":349,"Ġbla":350,"Ġblack":351,"oun":352,"Ġwat":353,"red":354,"gh":355,"no":356,"hi":357,"ple":358,"Ġrun":359,"Ġwoman":360,"ers":361,"Ġat":362,"itt":363,"Ġ,":364,"Ġwear":365,"ur":366,"Ġstand":367,"king":368,"irt":369,"ge":370,"Ġwearing":371,"Ġpe":372,"ump":373,"Ġwater":374,"ide":375,"Ġjump":376,"Ġba":377,"Ġpeo":378,"Ġpeople":379,"ard":380,"Ġn":381,"oo":382,"Ġchi":383,"ce":384,"Ġred":385,"Ġchild":386,"ver":387,"Ġyoun":388,"Ġyoung":389,"rown":390,"Ġan":391,"Ġbe":392,"Ġro":393,"Ġco":394,"Ġbrown":395,"im":396,"ue":397,"Ġsno":398,"Ġsnow":399,"Ġgra":400,"Ġho":401,"ile":402,"il":403,"Ġbl":404,"am":405,"Ġfro":406,"Ġhis":407,"ri":408,"Ġlo":409,"el":410,"Ġsm":411,"Ġblue":412,"ad":413,"ning":414,"bo":415,"Ġout":416,"Ġbi":417,"round":418,"Ġdogs":419,"Ġgrass":420,"Ġsk":421,"rough":422,"Ġwal":423,"Ġrunning":424,"Ġshirt":425,"Ġthrough":426,"Ġplaying":427,"Ġwhile":428,"ther":429,"low":430,"ree":431,"lding":432,"Ġu":433,"Ġfi":434,"Ġdown":435,"Ġmo":436,"Ġball":437,"ke":438,"Ġstanding":439,"its":440,"ve":441,"Ġlitt":442,"Ġlittle":443,"ach":444,"se":445,"Ġsw":446,"ain":447,"Ġgre":448,"to":449,"Ġover":450,"Ġrid":451,"board":452,"Ġe":453,"ic":454,"Ġpers":455,"Ġperson":456,"ts":457,"Ġloo":458,"Ġla":459,"Ġle":460,"Ġhe":461,"Ġpo":462,"ks":463,"Ġjumping":464,"nt":465,"Ġup":466,"Ġra":467,"itting":468,"Ġk":469,"as":470,"Ġthree":471,"Ġfront":472,"Ġback":473,"Ġsitting":474,"ball":475,"Ġsmall":476,"Ġholding":477,"eld":478,"Ġfield":479,"Ġrock":480,"ll":481,"Ġlar":482,"Ġcar":483,"Ġby":484,"Ġgreen":485,"ack":486,"Ġlarge":487,"Ġyel":488,"Ġbu":489,"Ġgrou":490,"Ġgroup":491,"Ġone":492,"Ġher":493,"Ġyellow":494,"ren":495,"side":496,"Ġcl":497,"ate":498,"ying":499,"Ġnear":500,"Ġstre":501,"Ġair":502,"Ġwalking":503,"Ġsom":504,"Ġchildren":505,"Ġsp":506,"air":507,"Ġas":508,"Ġmen":509,"ount":510,"yc":511,"ght":512,"Ġinto":513,"Ġfor":514,"ress":515,"Ġbeach":516,"uth":517,"ap":518,"Ġmouth":519,"ng":520,"ountain":521,"Ġre":522,"ick":523,"Ġskate":524,"if":525,"Ġdress":526,"Ġjumps":527,"ink":528,"Ġne":529,"ark":530,"Ġstreet":531,"hes":532,"imb":533,"hing":534,"ood":535,"cyc":536,"Ġano":537,"Ġanother":538,"Ġother":539,"Ġits":540,"Ġclimb":541,"Ġfo":542,"ay":543,"row":544,"Ġskateboard":545,"Ġruns":546,"Ġtra":547,"Ġfrom":548,"Ġriding":549,"ran":550,"Ġstands":551,"Ġbike":552,"Ġsur":553,"ground":554,"Ġch":555,"Ġcam":556,"Ġsho":557,"Ġoff":558,"Ġgirls":559,"Ġta":560,"Ġso":561,"Ġwa":562,"Ġmountain":563,"orm":564,"li":565,"Ġsome":566,"Ġoutside":567,"xt":568,"cycle":569,"ool":570,"ent":571,"Ġjack":572,"Ġhat":573,"Ġswim":574,"ul":575,"range":576,"Ġhand":577,"Ġnext":578,"Ġgo":579,"Ġjacket":580,"Ġfa":581,"Ġorange":582,"ross":583,"oot":584,"Ġlooking":585,"Ġpink":586,"Ġplayer":587,"pp":588,"ct":589,"era":590,"Ġside":591,"Ġse":592,"rick":593,"Ġcat":594,"cer":595,"ure":596,"Ġtheir":597,"Ġpool":598,"Ġwood":599,"Ġcamera":600,"Ġpu":601,"by":602,"Ġboys":603,"uit":604,"Ġwomen":605,"Ġaround":606,"Ġswing":607,"Ġsurf":608,"Ġdirt":609,"iling":610,"hind":611,"Ġbehind":612,"Ġtoy":613,"ill":614,"ig":615,"rying":616,"Ġhead":617,"rowd":618,"ches":619,"Ġcrowd":620,"ion":621,"Ġsand":622,"ble":623,"Ġalo":624,"ee":625,"Ġhi":626,"Ġbackground":627,"one":628,"Ġsoc":629,"Ġbui":630,"Ġsun":631,"Ġclo":632,"lass":633,"Ġstick":634,"Ġbuilding":635,"te":636,"Ġsoccer":637,"Ġar":638,"Ġwall":639,"Ġsits":640,"ting":641,"ves":642,"ight":643,"Ġdressed":644,"Ġalong":645,"Ġhas":646,"Ġte":647,"Ġpark":648,"Ġfoot":649,"Ġhold":650,"dy":651,"Ġwalks":652,"ching":653,"Ġkid":654,"cross":655,"ps":656,"Ġsl":657,"cing":658,"Ġun":659,"Ġma":660,"Ġplays":661,"Ġpic":662,"ie":663,"Ġlooks":664,"Ġhel":665,"ket":666,"ture":667,"Ġhill":668,"Ġfour":669,"Ġblo":670,"Ġclimbing":671,"Ġfootball":672,"ward":673,"ine":674,"Ġpa":675,"Ġtop":676,"Ġface":677,"alk":678,"dle":679,"sing":680,"lasses":681,"Ġtrick":682,"Ġpicture":683,"Ġswimm":684,"Ġtan":685,"Ġacross":686,"pe":687,"Ġbicycle":688,"Ġgrassy":689,"Ġholds":690,"ft":691,"kes":692,"ly":693,"Ġski":694,"cean":695,"Ġten":696,"Ġocean":697,"Ġsmiling":698,"sh":699,"Ġsc":700,"orts":701,"Ġrides":702,"ath":703,"gs":704,"Ġcolo":705,"Ġmot":706,"Ġswimming":707,"way":708,"Ġbas":709,"Ġmu":710,"Ġv":711,"Ġhim":712,"Ġbasket":713,"get":714,"Ġdoing":715,"Ġcarrying":716,"ho":717,"Ġhair":718,"ame":719,"Ġeach":720,"nis":721,"Ġ'":722,"Ġtennis":723,"walk":724,"Ġtree":725,"led":726,"Ġmid":727,"ving":728,"Ġmotor":729,"Ġsnowy":730,"Ġarm":731,"Ġbaby":732,"Ġdr":733,"met":734,"Ġfen":735,"Ġtoget":736,"Ġtogether":737,"form":738,"Ġhelmet":739,"Ġben":740,"ors":741,"Ġit":742,"Ġsnowboard":743,"Ġthat":744,"Ġold":745,"Ġunif":746,"Ġbasketball":747,"Ġarea":748,"Ġroad":749,"Ġuniform":750,"Ġblond":751,"Ġtoward":752,"Ġi":753,"gg":754,"Ġper":755,"Ġbar":756,"Ġrace":757,"ey":758,"rest":759,"ans":760,"Ġabo":761,"ity":762,"Ġgrey":763,"Ġleap":764,"les":765,"Ġshorts":766,"Ġpur":767,"Ġsidewalk":768,"Ġbench":769,"vered":770,"ris":771,"Ġcatch":772,"Ġsit":773,"Ġgame":774,"ph":775,"Ġcou":776,"Ġob":777,"nder":778,"Ġbase":779,"Ġwalk":780,"Ġperform":781,"Ġground":782,"Ġfe":783,"Ġflo":784,"ating":785,"do":786,"Ġunder":787,"ling":788,"ff":789,"ne":790,"Ġgu":791,"Ġcon":792,"qu":793,"ething":794,"Ġsomething":795,"Ġfris":796,"Ġfrisb":797,"Ġget":798,"Ġkids":799,"Ġfence":800,"age":801,"mp":802,"ub":803,"Ġbeing":804,"Ġpath":805,"Ġfrisbee":806,"Ġdi":807,"Ġcom":808,"Ġlake":809,"amp":810,"ian":811,"Ġtrack":812,"ign":813,"Ġcity":814,"Ġramp":815,"Ġboat":816,"veral":817,"Ġlong":818,"Ġwave":819,"ru":820,"Ġskateboarder":821,"ak":822,"ants":823,"Ġseveral":824,"hed":825,"ment":826,"Ġoutdo":827,"iff":828,"Ġpurple":829,"Ġhu":830,"Ġsign":831,"Ġad":832,"Ġdan":833,"Ġcovered":834,"ler":835,"Ġclot":836,"Ġthere":837,"Ġhigh":838,"Ġtre":839,"Ġchas":840,"Ġslide":841,"Ġwi":842,"Ġshe":843,"Ġcoat":844,"Ġri":845,"Ġsmile":846,"Ġbaseball":847,"ird":848,"Ġthem":849,"Ġstri":850,"Ġposing":851,"Ġche":852,"Ġguy":853,"Ġplayers":854,"Ġdark":855,"Ġha":856,"Ġhor":857,"Ġbik":858,"Ġread":859,"Ġwooden":860,"Ġfli":861,"Ġbig":862,"Ġtable":863,"glasses":864,"Ġmotorcycle":865,"Ġsunglasses":866,"umb":867,"Ġwatches":868,"Ġspla":869,"ses":870,"Ġfl":871,"ry":872,"Ġbat":873,"Ġpar":874,"Ġwet":875,"Ġli":876,"Ġje":877,"ac":878,"Ġlook":879,"Ġteam":880,"Ġcolor":881,"ped":882,"und":883,"ces":884,"Ġtrees":885,"Ġhan":886,"Ġbal":887,"Ġpants":888,"Ġcoll":889,"list":890,"Ġflow":891,"Ġrocks":892,"Ġcouple":893,"Ġbr":894,"Ġride":895,"Ġwatching":896,"Ġrope":897,"tt":898,"Ġdri":899,"ful":900,"ol":901,"Ġbes":902,"Ġsuit":903,"ries":904,"Ġhorse":905,"Ġfla":906,"shirt":907,"Ġarms":908,"Ġtowards":909,"Ġbeside":910,"eat":911,"Ġag":912,"Ġhands":913,"Ġbird":914,"Ġrocky":915,"Ġcour":916,"Ġriver":917,"Ġam":918,"ant":919,"Ġcap":920,"pen":921,"Ġ\"":922,"ndo":923,"iting":924,"ect":925,"ging":926,"Ġno":927,"Ġwatch":928,"dd":929,"Ġbus":930,"Ġsnowboarder":931,"Ġthrow":932,"us":933,"Ġste":934,"Ġve":935,"Ġdoes":936,"Ġkick":937,"Ġroll":938,"Ġsplas":939,"up":940,"Ġwhe":941,"Ġadul":942,"ter":943,"Ġoutf":944,"Ġabove":945,"man":946,"Ġracing":947,"Ġde":948,"Ġolder":949,"ckey":950,"Ġsweat":951,"Ġjeans":952,"Ġlady":953,"Ġice":954,"Ġwho":955,"Ġopen":956,"co":957,"use":958,"Ġlea":959,"stum":960,"Ġcolorful":961,"Ġstriped":962,"Ġcostum":963,"Ġpose":964,"Ġslid":965,"Ġcollar":966,"Ġfight":967,"Ġset":968,"pack":969,"Ġonto":970,"Ġwoods":971,"ired":972,"Ġbackpack":973,"Ġsurround":974,"Ġmidair":975,"Ġpho":976,"Ġboo":977,"Ġphoto":978,"Ġtal":979,"Ġglasses":980,"pping":981,"Ġcliff":982,"Ġsto":983,"Ġtaking":984,"Ġagain":985,"ws":986,"Ġmountains":987,"Ġleaps":988,"uring":989,"Ġasian":990,"ies":991,"Ġplayground":992,"Ġyard":993,"Ġagainst":994,"ather":995,"Ġbody":996,"Ġclimbs":997,"Ġchair":998,"Ġblonde":999,"Ġca":1000,"Ġcross":1001,"Ġpain":1002,"Ġcan":1003,"ort":1004,"Ġmud":1005,"Ġfis":1006,"Ġperforming":1007,"Ġfountain":1008,"Ġboard":1009,"Ġhockey":1010,"Ġshore":1011,"fter":1012,"Ġsmiles":1013,"Ġlight":1014,"Ġwrest":1015,"ire":1016,"Ġafter":1017,"Ġlaying":1018,"eep":1019,"Ġsurfer":1020,"ugh":1021,"Ġguit":1022,"Ġguitar":1023,"ess":1024,"Ġmany":1025,"Ġrider":1026,"loo":1027,"Ġrest":1028,"Ġchasing":1029,"Ġtodd":1030,"Ġswims":1031,"phone":1032,"ull":1033,"very":1034,"ip":1035,"Ġfire":1036,"Ġsky":1037,"Ġpull":1038,"Ġskier":1039,"Ġbrick":1040,"ation":1041,"Ġsurrounded":1042,"Ġstair":1043,"Ġnight":1044,"Ġoutdoors":1045,"bble":1046,"Ġbri":1047,"Ġinside":1048,"Ġduring":1049,"Ġsha":1050,"Ġtur":1051,"Ġpro":1052,"Ġgold":1053,"Ġflying":1054,"ep":1055,"Ġed":1056,"pet":1057,"Ġothers":1058,"Ġforest":1059,"Ġbiker":1060,"ag":1061,"Ġtakes":1062,"Ġcolored":1063,"Ġedge":1064,"wing":1065,"Ġaway":1066,"Ġbed":1067,"Ġtoddler":1068,"ade":1069,"Ġwheel":1070,"ell":1071,"Ġkay":1072,"Ġpast":1073,"Ġhanging":1074,"Ġbrid":1075,"ject":1076,"Ġmiddle":1077,"ist":1078,"ud":1079,"Ġvery":1080,"Ġtrying":1081,"lder":1082,"Ġbright":1083,"we":1084,"Ġfall":1085,"ner":1086,"Ġgray":1087,"Ġleas":1088,"Ġsomeone":1089,"Ġdrin":1090,"Ġpre":1091,"ance":1092,"Ġbear":1093,"less":1094,"Ġpupp":1095,"Ġsurfboard":1096,"Ġoutfit":1097,"Ġfive":1098,"Ġpoin":1099,"cyclist":1100,"Ġpad":1101,"Ġlaugh":1102,"Ġpole":1103,"Ġteen":1104,"Ġen":1105,"Ġtrail":1106,"Ġobject":1107,"Ġfloor":1108,"Ġtalking":1109,"Ġbag":1110,"Ġsteps":1111,"ted":1112,"ust":1113,"Ġtrain":1114,"Ġmaking":1115,"Ġwhil":1116,"Ġnearby":1117,"Ġabout":1118,"Ġwindo":1119,"Ġwhilst":1120,"Ġsled":1121,"stic":1122,"Ġtall":1123,"Ġlif":1124,"Ġgoing":1125,"Ġflowers":1126,"ug":1127,"vel":1128,"Ġline":1129,"uff":1130,"allow":1131,"Ġall":1132,"stac":1133,"ings":1134,"Ġwin":1135,"Ġswinging":1136,"Ġhaired":1137,"Ġeating":1138,"Ġdancing":1139,"ma":1140,"imal":1141,"ys":1142,"Ġday":1143,"Ġjers":1144,"Ġthis":1145,"ily":1146,"Ġposes":1147,"Ġwaves":1148,"Ġleaves":1149,"Ġbridge":1150,"Ġear":1151,"Ġtr":1152,"Ġpart":1153,"Ġanimal":1154,"Ġjersey":1155,"Ġbott":1156,"Ġsmo":1157,"Ġwindow":1158,"Ġleaping":1159,"Ġdist":1160,"ny":1161,"Ġey":1162,"Ġoutdoor":1163,"Ġpi":1164,"cket":1165,"Ġex":1166,"temp":1167,"Ġclothes":1168,"Ġnumb":1169,"aper":1170,"Ġcourse":1171,"Ġshallow":1172,"Ġlegs":1173,"Ġgoal":1174,"Ġobstac":1175,"Ġblow":1176,"Ġcow":1177,"Ġhouse":1178,"Ġsa":1179,"rel":1180,"Ġatt":1181,"Ġattemp":1182,"Ġroom":1183,"Ġrail":1184,"Ġcostume":1185,"Ġfighting":1186,"Ġplastic":1187,"Ġleash":1188,"zz":1189,"Ġclothing":1190,"Ġstone":1191,"ction":1192,"Ġsplashing":1193,"ddle":1194,"ial":1195,"Ġsle":1196,"Ġcur":1197,"Ġstar":1198,"Ġcarries":1199,"Ġseat":1200,"hound":1201,"Ġstore":1202,"ched":1203,"Ġbet":1204,"Ġmet":1205,"Ġlean":1206,"cre":1207,"Ġbubble":1208,"Ġpus":1209,"Ġgreyhound":1210,"ween":1211,"Ġtire":1212,"Ġcor":1213,"Ġmat":1214,"Ġbox":1215,"Ġready":1216,"Ġobstacle":1217,"Ġbetween":1218,"th":1219,"Ġrailing":1220,"Ġclimber":1221,"Ġclose":1222,"Ġgetting":1223,"Ġtrun":1224,"sc":1225,"arf":1226,"Ġland":1227,"Ġcatches":1228,"Ġadult":1229,"Ġsliding":1230,"bor":1231,"ha":1232,"Ġoverloo":1233,"Ġstream":1234,"Ġsi":1235,"Ġthey":1236,"ley":1237,"cks":1238,"Ġskateboarding":1239,"Ġswings":1240,"Ġroller":1241,"fla":1242,"Ġband":1243,"Ġlawn":1244,"Ġspe":1245,"gging":1246,"Ġbathing":1247,"Ġkayak":1248,"Ġwinter":1249,"suit":1250,"Ġdis":1251,"Ġshirts":1252,"Ġfema":1253,"Ġconcre":1254,"Ġvest":1255,"Ġsweater":1256,"Ġconcrete":1257,"erman":1258,"Ġcart":1259,"Ġtong":1260,"Ġret":1261,"Ġwaiting":1262,"mpol":1263,"mpoline":1264,"Ġdes":1265,"Ġcra":1266,"Ġtrampoline":1267,"ace":1268,"Ġwor":1269,"Ġor":1270,"Ġpl":1271,"Ġce":1272,"ette":1273,"Ġcompet":1274,"Ġgear":1275,"Ġwears":1276,"Ġhik":1277,"Ġuniforms":1278,"ding":1279,"gra":1280,"ta":1281,"Ġsu":1282,"Ġcyc":1283,"Ġmar":1284,"Ġmale":1285,"Ġskiing":1286,"Ġmetal":1287,"Ġjo":1288,"Ġturn":1289,"Ġnumber":1290,"Ġme":1291,"Ġsandy":1292,"Ġgolden":1293,"Ġtongue":1294,"Ġhar":1295,"Ġspo":1296,"Ġpulling":1297,"ive":1298,"set":1299,"Ġlot":1300,"ican":1301,"Ġupside":1302,"Ġkis":1303,"Ġcatching":1304,"Ġthrowing":1305,"Ġstairs":1306,"Ġbeard":1307,"iv":1308,"Ġsil":1309,"Ġmas":1310,"Ġdrink":1311,"Ġcourt":1312,"Ġdistance":1313,"Ġtries":1314,"hic":1315,"Ġmakes":1316,"Ġgets":1317,"Ġfur":1318,"ater":1319,"Ġadults":1320,"Ġphotogra":1321,"Ġfishing":1322,"ents":1323,"ric":1324,"Ġshirtless":1325,"Ġspr":1326,"ruck":1327,"Ġflies":1328,"Ġoverlooking":1329,"na":1330,"ved":1331,"Ġcell":1332,"Ġskirt":1333,"Ġfemale":1334,"Ġapp":1335,"ster":1336,"Ġsub":1337,"ates":1338,"Ġcouch":1339,"par":1340,"Ġwooded":1341,"Ġpass":1342,"Ġtricks":1343,"Ġvehic":1344,"io":1345,"pher":1346,"Ġhur":1347,"Ġhors":1348,"Ġstun":1349,"Ġbusy":1350,"Ġdrinking":1351,"Ġpuppy":1352,"Ġopp":1353,"Ġsqu":1354,"Ġdock":1355,"ats":1356,"Ġstru":1357,"Ġlying":1358,"ading":1359,"Ġchases":1360,"Ġhorses":1361,"yard":1362,"Ġumb":1363,"Ġhoo":1364,"Ġspra":1365,"Ġvie":1366,"Ġflag":1367,"Ġcano":1368,"rella":1369,"Ġcyclist":1370,"Ġumbrella":1371,"ness":1372,"Ġbre":1373,"Ġpit":1374,"erican":1375,"Ġpuddle":1376,"Ġperforms":1377,"Ġcellphone":1378,"ins":1379,"Ġdoor":1380,"ons":1381,"Ġwaterf":1382,"Ġpond":1383,"Ġrac":1384,"Ġsurfing":1385,"Ġreading":1386,"Ġprepar":1387,"Ġlaughing":1388,"Ġput":1389,"Ġright":1390,"Ġleaning":1391,"Ġtrunks":1392,"Ġhurdle":1393,"jo":1394,"llow":1395,"rie":1396,"Ġshopping":1397,"lice":1398,"Ġsunset":1399,"Ġmuzz":1400,"Ġhuge":1401,"Ġflip":1402,"Ġeyes":1403,"aur":1404,"Ġslo":1405,"Ġrain":1406,"Ġslides":1407,"Ġcig":1408,"Ġmark":1409,"Ġfood":1410,"Ġpolice":1411,"Ġcigar":1412,"ition":1413,"alle":1414,"Ġelder":1415,"Ġneck":1416,"Ġshoes":1417,"Ġmake":1418,"Ġnose":1419,"Ġstunt":1420,"Ġview":1421,"Ġwaterfall":1422,"ase":1423,"mb":1424,"Ġsn":1425,"Ġpaper":1426,"Ġleft":1427,"Ġrais":1428,"Ġfollow":1429,"Ġhats":1430,"Ġscarf":1431,"Ġenjo":1432,"Ġlife":1433,"dge":1434,"ium":1435,"Ġtruck":1436,"Ġdra":1437,"Ġhood":1438,"Ġstra":1439,"Ġequ":1440,"Ġcoming":1441,"Ġamerican":1442,"Ġbubbles":1443,"Ġbun":1444,"iti":1445,"ggles":1446,"sel":1447,"Ġtent":1448,"Ġfam":1449,"Ġbow":1450,"Ġwaters":1451,"Ġgraff":1452,"Ġbicyclist":1453,"Ġfeet":1454,"Ġrestaur":1455,"Ġharness":1456,"line":1457,"nel":1458,"pla":1459,"Ġtack":1460,"ends":1461,"Ġbikes":1462,"Ġform":1463,"Ġshow":1464,"ult":1465,"cture":1466,"Ġbook":1467,"Ġequip":1468,"Ġfamily":1469,"bla":1470,"ym":1471,"Ġpat":1472,"Ġcle":1473,"Ġev":1474,"Ġshou":1475,"Ġmus":1476,"Ġmask":1477,"Ġelderly":1478,"Ġgraffiti":1479,"Ġrestaurant":1480,"Ġequipment":1481,"hered":1482,"Ġpile":1483,"ones":1484,"Ġref":1485,"ube":1486,"Ġretrie":1487,"Ġtri":1488,"Ġban":1489,"Ġbiting":1490,"Ġdeep":1491,"Ġrug":1492,"Ġboth":1493,"Ġtake":1494,"Ġrollerbla":1495,"ced":1496,"ini":1497,"Ġgather":1498,"ural":1499,"Ġlone":1500,"els":1501,"Ġskis":1502,"Ġskating":1503,"Ġsweatshirt":1504,"Ġsetting":1505,"Ġstructure":1506,"Ġbm":1507,"Ġwetsuit":1508,"Ġlike":1509,"Ġmuddy":1510,"lers":1511,"Ġter":1512,"Ġsing":1513,"Ġinfla":1514,"Ġgym":1515,"Ġraft":1516,"Ġdry":1517,"Ġflags":1518,"Ġfalling":1519,"Ġhiker":1520,"Ġal":1521,"Ġcre":1522,"Ġshort":1523,"Ġbags":1524,"Ġkne":1525,"Ġbull":1526,"Ġtank":1527,"Ġguys":1528,"Ġvehicle":1529,"Ġcanoe":1530,"aking":1531,"ping":1532,"Ġbucket":1533,"Ġdresses":1534,"Ġbmx":1535,"av":1536,"cor":1537,"Ġlow":1538,"Ġele":1539,"Ġledge":1540,"Ġcrowded":1541,"Ġindo":1542,"Ġpaddle":1543,"Ġsix":1544,"Ġsprink":1545,"Ġmusic":1546,"kers":1547,"Ġgerman":1548,"athered":1549,"Ġart":1550,"Ġoppo":1551,"Ġslope":1552,"Ġcigarette":1553,"bb":1554,"ines":1555,"head":1556,"Ġairbor":1557,"pped":1558,"Ġflower":1559,"Ġdriving":1560,"Ġairborne":1561,"ty":1562,"vers":1563,"ane":1564,"room":1565,"Ġring":1566,"Ġfaces":1567,"Ġdance":1568,"Ġhave":1569,"Ġcement":1570,"ban":1571,"ned":1572,"pes":1573,"ending":1574,"lored":1575,"Ġstat":1576,"Ġblan":1577,"Ġgoes":1578,"Ġgoggles":1579,"Ġdiving":1580,"Ġparking":1581,"Ġballo":1582,"Ġcostumes":1583,"table":1584,"Ġinflatable":1585,"mer":1586,"Ġqu":1587,"str":1588,"Ġtun":1589,"Ġdu":1590,"Ġmult":1591,"Ġfing":1592,"ated":1593,"Ġbare":1594,"Ġkicking":1595,"Ġteenage":1596,"Ġbottle":1597,"Ġsubway":1598,"allen":1599,"Ġblanket":1600,"Ġpie":1601,"Ġcrou":1602,"Ġmic":1603,"Ġboun":1604,"ong":1605,"Ġsports":1606,"Ġbuildings":1607,"Ġmotorcyclist":1608,"Ġsplashes":1609,"Ġshaking":1610,"pherd":1611,"arm":1612,"Ġtat":1613,"ert":1614,"ish":1615,"Ġfull":1616,"Ġfallen":1617,"Ġhit":1618,"ome":1619,"aching":1620,"Ġscen":1621,"Ġshepherd":1622,"Ġparade":1623,"Ġpaint":1624,"Ġmicro":1625,"band":1626,"ice":1627,"op":1628,"Ġgi":1629,"Ġglo":1630,"Ġstuff":1631,"aked":1632,"ached":1633,"Ġears":1634,"Ġtu":1635,"Ġcount":1636,"Ġgathered":1637,"wor":1638,"Ġtou":1639,"ally":1640,"hill":1641,"Ġjackets":1642,"Ġcheer":1643,"Ġbalan":1644,"Ġsilver":1645,"iz":1646,"Ġmon":1647,"Ġfet":1648,"rier":1649,"Ġlog":1650,"Ġleather":1651,"Ġbackyard":1652,"Ġsmaller":1653,"Ġsoft":1654,"Ġpictures":1655,"Ġthrows":1656,"Ġchairs":1657,"Ġsmoking":1658,"Ġcloseup":1659,"Ġtunnel":1660,"Ġmicrophone":1661,"mo":1662,"ore":1663,"ring":1664,"Ġhome":1665,"Ġballs":1666,"Ġheld":1667,"Ġsunny":1668,"Ġbikini":1669,"covered":1670,"Ġboots":1671,"Ġcowbo":1672,"Ġevent":1673,"ered":1674,"lic":1675,"Ġgri":1676,"Ġstage":1677,"ids":1678,"ony":1679,"Ġcars":1680,"Ġsurface":1681,"Ġscoot":1682,"Ġunderw":1683,"Ġfluff":1684,"Ġkicks":1685,"eping":1686,"Ġfluffy":1687,"Ġaf":1688,"Ġbran":1689,"ghts":1690,"Ġnet":1691,"Ġusing":1692,"Ġhiking":1693,"Ġind":1694,"Ġoutfits":1695,"Ġprote":1696,"Ġpushing":1697,"Ġrugby":1698,"Ġpiece":1699,"Ġph":1700,"Ġdig":1701,"Ġcut":1702,"Ġglass":1703,"ado":1704,"Ġleg":1705,"ggy":1706,"Ġpainted":1707,"Ġpointing":1708,"Ġclear":1709,"Ġstatue":1710,"Ġstuffed":1711,"Ġsteep":1712,"Ġkn":1713,"Ġsticks":1714,"Ġbald":1715,"Ġswimsuit":1716,"Ġteenag":1717,"Ġblowing":1718,"Ġspray":1719,"Ġgrind":1720,"out":1721,"too":1722,"Ġtube":1723,"Ġcover":1724,"Ġkit":1725,"Ġblock":1726,"Ġvol":1727,"Ġsheep":1728,"Ġdrinks":1729,"Ġslee":1730,"Ġsuits":1731,"Ġtattoo":1732,"aches":1733,"der":1734,"me":1735,"Ġfun":1736,"ators":1737,"Ġlap":1738,"Ġshot":1739,"phones":1740,"Ġcont":1741,"Ġwind":1742,"Ġsleeping":1743,"leyball":1744,"Ġspeed":1745,"Ġscooter":1746,"Ġvolleyball":1747,"sed":1748,"Ġfil":1749,"Ġwhi":1750,"Ġshoot":1751,"Ġbea":1752,"Ġspect":1753,"Ġhind":1754,"Ġhugging":1755,"Ġwrestling":1756,"Ġpadd":1757,"Ġcorner":1758,"haired":1759,"ival":1760,"Ġfurry":1761,"aster":1762,"ger":1763,"wk":1764,"ary":1765,"Ġbut":1766,"Ġsame":1767,"let":1768,"ise":1769,"Ġhal":1770,"ape":1771,"Ġfore":1772,"Ġdrum":1773,"Ġhangs":1774,"Ġcrossing":1775,"Ġpoints":1776,"Ġdispla":1777,"Ġphotograph":1778,"Ġcowboy":1779,"Ġfri":1780,"Ġfair":1781,"Ġplat":1782,"ads":1783,"Ġleans":1784,"Ġwrestle":1785,"Ġattempting":1786,"Ġstaring":1787,"Ġkissing":1788,"Ġmarket":1789,"Ġbunch":1790,"Ġafric":1791,"Ġbeaut":1792,"Ġspectators":1793,"ige":1794,"Ġap":1795,"stand":1796,"Ġwading":1797,"Ġpra":1798,"ron":1799,"Ġcup":1800,"Ġgard":1801,"rack":1802,"Ġlick":1803,"chool":1804,"ime":1805,"Ġlays":1806,"Ġfast":1807,"Ġfew":1808,"Ġteams":1809,"Ġamong":1810,"Ġparty":1811,"Ġattempts":1812,"adow":1813,"Ġgarden":1814,"Ġend":1815,"Ġwide":1816,"Ġinstr":1817,"Ġbelow":1818,"Ġbeige":1819,"rist":1820,"top":1821,"Ġfacing":1822,"Ġbicycles":1823,"Ġsnowboarding":1824,"Ġpuppies":1825,"Ġdesert":1826,"ious":1827,"Ġinstrum":1828,"che":1829,"ds":1830,"ls":1831,"ined":1832,"Ġbath":1833,"Ġschool":1834,"Ġpet":1835,"roll":1836,"Ġonloo":1837,"ung":1838,"urban":1839,"Ġcarpet":1840,"Ġfenced":1841,"Ġfish":1842,"Ġbottom":1843,"Ġsniff":1844,"self":1845,"Ġafrican":1846,"bi":1847,"dies":1848,"ere":1849,"Ġwr":1850,"Ġown":1851,"Ġpack":1852,"Ġhap":1853,"als":1854,"Ġrow":1855,"ical":1856,"Ġracket":1857,"iful":1858,"Ġchain":1859,"Ġsticking":1860,"Ġattached":1861,"Ġcompetition":1862,"Ġsprinkler":1863,"Ġsoftball":1864,"Ġunderwater":1865,"Ġbeautiful":1866,"aks":1867,"whe":1868,"Ġrough":1869,"Ġway":1870,"Ġpood":1871,"etrack":1872,"ils":1873,"Ġemp":1874,"Ġeats":1875,"Ġpoles":1876,"Ġstret":1877,"Ġoffic":1878,"Ġwaving":1879,"Ġheadband":1880,"tted":1881,"Ġappear":1882,"Ġhoop":1883,"Ġracetrack":1884,"Ġonlookers":1885,"ber":1886,"foot":1887,"full":1888,"ns":1889,"ught":1890,"ven":1891,"Ġtro":1892,"alm":1893,"ute":1894,"ideo":1895,"Ġnaked":1896,"Ġgravel":1897,"Ġmoto":1898,"Ġwait":1899,"Ġwake":1900,"Ġvideo":1901,"Ġhula":1902,"Ġdances":1903,"Ġrolling":1904,"colored":1905,"Ġtalks":1906,"Ġwatersk":1907,"Ġphone":1908,"Ġwhich":1909,"fully":1910,"stre":1911,"Ġwings":1912,"Ġbur":1913,"Ġpick":1914,"Ġgun":1915,"Ġracer":1916,"Ġsigns":1917,"Ġparach":1918,"Ġprepares":1919,"Ġempty":1920,"Ġmotocross":1921,"ier":1922,"od":1923,"ou":1924,"py":1925,"Ġint":1926,"Ġdun":1927,"Ġcard":1928,"Ġhits":1929,"eth":1930,"Ġplaid":1931,"Ġjust":1932,"Ġdownhill":1933,"Ġmoha":1934,"Ġladies":1935,"Ġhandstand":1936,"Ġpub":1937,"Ġtoys":1938,"Ġheads":1939,"wards":1940,"Ġdire":1941,"Ġcomp":1942,"Ġbride":1943,"Ġbirds":1944,"Ġcast":1945,"Ġseated":1946,"Ġpushes":1947,"Ġbarefoot":1948,"Ġbranch":1949,"Ġmohawk":1950,"cher":1951,"est":1952,"Ġtw":1953,"Ġhard":1954,"vert":1955,"Ġrod":1956,"vement":1957,"Ġshop":1958,"Ġcloud":1959,"Ġpavement":1960,"Ġmotorbi":1961,"Ġfloat":1962,"Ġhaving":1963,"Ġpainting":1964,"Ġshoulder":1965,"Ġpaddling":1966,"Ġdisplay":1967,"Ġplatform":1968,"Ġpublic":1969,"ien":1970,"Ġtug":1971,"Ġcla":1972,"Ġcrick":1973,"Ġmed":1974,"Ġskateboards":1975,"Ġtraff":1976,"Ġpier":1977,"Ġcream":1978,"Ġscene":1979,"erent":1980,"Ġcricket":1981,"Ġtraffic":1982,"Ġwed":1983,"Ġsay":1984,"Ġpul":1985,"Ġdiff":1986,"ery":1987,"land":1988,"Ġlit":1989,"Ġoutstre":1990,"Ġrap":1991,"Ġnews":1992,"Ġsea":1993,"Ġchewing":1994,"Ġreads":1995,"scape":1996,"Ġgloves":1997,"Ġpract":1998,"Ġwakeboard":1999,"Ġdifferent":2000,"ken":2001,"Ġurban":2002,"inning":2003,"stage":2004,"Ġcree":2005,"Ġmi":2006,"Ġmil":2007,"Ġrural":2008,"Ġstroll":2009,"Ġthrown":2010,"Ġbeer":2011,"Ġhose":2012,"Ġraces":2013,"light":2014,"Ġdirty":2015,"Ġteeth":2016,"Ġdrives":2017,"Ġlandscape":2018,"Ġkitche":2019,"Ġhalf":2020,"Ġkitchen":2021,"case":2022,"fore":2023,"ied":2024,"nival":2025,"per":2026,"Ġac":2027,"are":2028,"ars":2029,"Ġwe":2030,"read":2031,"Ġtoss":2032,"Ġbefore":2033,"Ġmother":2034,"Ġcarnival":2035,"Ġbars":2036,"Ġsplash":2037,"Ġresting":2038,"Ġsmoke":2039,"Ġmatch":2040,"Ġballoon":2041,"Ġcheerle":2042,"Ġfilled":2043,"ience":2044,"Ġnewsp":2045,"Ġround":2046,"Ġbro":2047,"Ġsum":2048,"Ġsant":2049,"Ġcand":2050,"Ġfly":2051,"Ġstad":2052,"iding":2053,"ides":2054,"Ġtow":2055,"Ġyounger":2056,"Ġlab":2057,"Ġwaits":2058,"ctive":2059,"Ġpaved":2060,"Ġwire":2061,"Ġlies":2062,"Ġgoalie":2063,"Ġplants":2064,"Ġbearded":2065,"Ġindoor":2066,"Ġopposing":2067,"Ġwedding":2068,"Ġsays":2069,"Ġcreek":2070,"Ġ2":2071,"Ġaud":2072,"Ġran":2073,"Ġatv":2074,"Ġcol":2075,"eling":2076,"Ġskin":2077,"Ġshowing":2078,"Ġheadphones":2079,"Ġdecor":2080,"Ġwrestler":2081,"Ġanimals":2082,"Ġblows":2083,"Ġgreyhounds":2084,"Ġformation":2085,"avy":2086,"Ġrapids":2087,"Ġstadium":2088,"stru":2089,"ites":2090,"Ġonstage":2091,"Ġhay":2092,"lders":2093,"ese":2094,"Ġthird":2095,"Ġath":2096,"Ġblur":2097,"Ġskates":2098,"Ġmoving":2099,"Ġreaching":2100,"Ġparked":2101,"Ġscre":2102,"Ġboats":2103,"Ġcheck":2104,"Ġlights":2105,"ession":2106,"Ġbandan":2107,"Ġsanta":2108,"mas":2109,"nic":2110,"que":2111,"sk":2112,"Ġtie":2113,"Ġtalk":2114,"Ġfan":2115,"Ġfra":2116,"irst":2117,"Ġrub":2118,"Ġbound":2119,"Ġrunner":2120,"Ġmouths":2121,"Ġchase":2122,"Ġchrist":2123,"Ġseen":2124,"Ġamuse":2125,"Ġwhere":2126,"Ġdeck":2127,"Ġfalls":2128,"Ġexp":2129,"Ġsaf":2130,"Ġcraw":2131,"Ġwork":2132,"Ġsinging":2133,"Ġfinger":2134,"Ġforeground":2135,"Ġinstruments":2136,"Ġbandanna":2137,"az":2138,"br":2139,"back":2140,"ges":2141,"gon":2142,"os":2143,"rin":2144,"Ġz":2145,"Ġent":2146,"ended":2147,"Ġmart":2148,"Ġmach":2149,"Ġgian":2150,"irc":2151,"ens":2152,"Ġemb":2153,"icyc":2154,"Ġclown":2155,"Ġhelmets":2156,"Ġprof":2157,"Ġcurly":2158,"Ġmatching":2159,"Ġrefle":2160,"Ġterra":2161,"Ġduck":2162,"Ġfunny":2163,"Ġshooting":2164,"Ġpoodle":2165,"Ġmotorbike":2166,"Ġpulled":2167,"Ġcheerlead":2168,"ser":2169,"tched":2170,"Ġtry":2171,"Ġcirc":2172,"Ġgl":2173,"Ġhitting":2174,"Ġshadow":2175,"Ġbeg":2176,"Ġropes":2177,"Ġhot":2178,"key":2179,"ico":2180,"Ġreaches":2181,"Ġunicyc":2182,"hou":2183,"Ġfloating":2184,"Ġstaircase":2185,"Ġbrightly":2186,"Ġpipe":2187,"Ġoutstretched":2188,"Ġnewspaper":2189,"Ġaudience":2190,"Ġchristmas":2191,"Ġamusement":2192,"Ġunicycle":2193,"cy":2194,"sp":2195,"Ġdust":2196,"Ġstud":2197,"eds":2198,"Ġatop":2199,"Ġnat":2200,"Ġhole":2201,"icip":2202,"Ġtravel":2203,"Ġshovel":2204,"Ġalongside":2205,"Ġvi":2206,"Ġpurse":2207,"Ġflight":2208,"Ġbushes":2209,"Ġstop":2210,"Ġshakes":2211,"Ġwheelie":2212,"Ġspotted":2213,"Ġpreparing":2214,"Ġneckla":2215,"Ġraises":2216,"Ġshoulders":2217,"Ġretriever":2218,"Ġbank":2219,"Ġteenagers":2220,"Ġgrinding":2221,"Ġmartial":2222,"Ġgiant":2223,"eo":2224,"of":2225,"Ġstart":2226,"Ġswor":2227,"Ġinc":2228,"Ġden":2229,"Ġplate":2230,"Ġlined":2231,"Ġgrab":2232,"Ġext":2233,"Ġkite":2234,"Ġlarger":2235,"Ġcho":2236,"Ġsee":2237,"Ġsurfs":2238,"Ġskiers":2239,"Ġguard":2240,"quet":2241,"Ġpulls":2242,"Ġbreak":2243,"Ġmuzzle":2244,"Ġfollows":2245,"Ġcounter":2246,"Ġdigging":2247,"Ġappears":2248,"Ġdirection":2249,"Ġcomput":2250,"Ġpractic":2251,"Ġim":2252,"Ġsus":2253,"ety":2254,"Ġjeep":2255,"rail":2256,"Ġrowing":2257,"Ġcold":2258,"Ġalone":2259,"gged":2260,"Ġadvert":2261,"Ġparas":2262,"Ġhang":2263,"olin":2264,"Ġeye":2265,"Ġcras":2266,"Ġhikers":2267,"Ġsilhou":2268,"Ġappro":2269,"Ġputting":2270,"Ġmuzzled":2271,"Ġenjoys":2272,"Ġhoodie":2273,"Ġstraw":2274,"Ġrollerblad":2275,"Ġmulti":2276,"Ġbalancing":2277,"Ġcovering":2278,"Ġrodeo":2279,"Ġterrain":2280,"Ġdenim":2281,"go":2282,"ured":2283,"Ġwra":2284,"Ġstation":2285,"boat":2286,"Ġmound":2287,"Ġpost":2288,"Ġbacks":2289,"Ġbackwards":2290,"Ġspinning":2291,"Ġrela":2292,"cting":2293,"Ġpicnic":2294,"Ġhimself":2295,"Ġconstru":2296,"Ġribb":2297,"Ġchest":2298,"Ġleaf":2299,"Ġshaggy":2300,"Ġparticip":2301,"Ġmemb":2302,"Ġsquirt":2303,"Ġputs":2304,"Ġhooded":2305,"Ġtricycle":2306,"Ġkneeling":2307,"Ġindoors":2308,"Ġpaddles":2309,"Ġmultico":2310,"Ġgives":2311,"Ġgiving":2312,"Ġparachute":2313,"Ġwarm":2314,"Ġbite":2315,"Ġser":2316,"itary":2317,"Ġped":2318,"ering":2319,"Ġclass":2320,"Ġgar":2321,"Ġgate":2322,"Ġju":2323,"chair":2324,"Ġjumped":2325,"aped":2326,"Ġshows":2327,"Ġhandrail":2328,"dder":2329,"Ġlaughs":2330,"Ġpige":2331,"Ġsiz":2332,"Ġelect":2333,"Ġsusp":2334,"lf":2335,"pl":2336,"site":2337,"Ġ;":2338,"Ġite":2339,"Ġpig":2340,"ening":2341,"Ġplayfully":2342,"Ġpeace":2343,"Ġrob":2344,"Ġriders":2345,"Ġladder":2346,"Ġnew":2347,"Ġcamp":2348,"Ġsoon":2349,"Ġunderne":2350,"Ġcloth":2351,"Ġbackpacks":2352,"Ġcompeting":2353,"Ġenjoying":2354,"Ġlicking":2355,"Ġsniffing":2356,"Ġwriting":2357,"Ġowner":2358,"Ġclouds":2359,"Ġsafety":2360,"Ġembra":2361,"Ġprofession":2362,"Ġviolin":2363,"Ġnecklace":2364,"Ġrelax":2365,"Ġconstruction":2366,"Ġitem":2367,"ous":2368,"ining":2369,"Ġwar":2370,"Ġbites":2371,"Ġgro":2372,"Ġstring":2373,"ident":2374,"Ġjung":2375,"urf":2376,"elling":2377,"like":2378,"Ġseven":2379,"Ġbikers":2380,"Ġdrive":2381,"Ġstep":2382,"Ġcorn":2383,"Ġpassing":2384,"Ġdoorway":2385,"Ġtackle":2386,"Ġterrier":2387,"Ġquick":2388,"Ġfingers":2389,"Ġfetch":2390,"Ġmachine":2391,"Ġparasa":2392,"Ġunderneath":2393,"Ġjungle":2394,"eree":2395,"Ġthese":2396,"Ġpun":2397,"Ġpony":2398,"ang":2399,"Ġmir":2400,"Ġmade":2401,"Ġrink":2402,"Ġstump":2403,"Ġjet":2404,"Ġtho":2405,"ited":2406,"Ġshar":2407,"Ġcamou":2408,"Ġtaken":2409,"Ġheadsc":2410,"Ġhillside":2411,"Ġpaws":2412,"Ġcoats":2413,"Ġcollie":2414,"Ġsplashed":2415,"Ġwheelchair":2416,"Ġsail":2417,"flage":2418,"Ġjockey":2419,"Ġbowl":2420,"Ġreferee":2421,"headed":2422,"Ġducks":2423,"Ġcrouches":2424,"Ġcountry":2425,"Ġfriend":2426,"Ġwaterski":2427,"Ġmilitary":2428,"Ġdecorated":2429,"Ġcomputer":2430,"Ġrollerblades":2431,"Ġpigeons":2432,"plane":2433,"Ġprofessional":2434,"Ġquickly":2435,"Ġmirro":2436,"Ġcamouflage":2437,"ast":2438,"bile":2439,"oc":2440,"Ġic":2441,"Ġwas":2442,"Ġbra":2443,"Ġdro":2444,"erry":2445,"Ġcone":2446,"aling":2447,"Ġbou":2448,"Ġthumb":2449,"Ġcoff":2450,"Ġskater":2451,"Ġemer":2452,"Ġcarri":2453,"Ġhelps":2454,"Ġbarrier":2455,"Ġobser":2456,"Ġwalkway":2457,"Ġdriver":2458,"Ġcaught":2459,"bbles":2460,"Ġkayaking":2461,"Ġtrunk":2462,"Ġdesc":2463,"Ġspots":2464,"Ġphotographer":2465,"Ġhoops":2466,"Ġrollerblading":2467,"Ġopposite":2468,"Ġbouncing":2469,"Ġbalances":2470,"Ġhomeless":2471,"Ġwinds":2472,"Ġscreen":2473,"Ġheadscarf":2474,"pt":2475,"uses":2476,"zen":2477,"arate":2478,"road":2479,"Ġgroom":2480,"Ġhall":2481,"Ġwithout":2482,"Ġwatched":2483,"elf":2484,"Ġbiking":2485,"Ġlay":2486,"Ġkarate":2487,"Ġstreets":2488,"Ġshown":2489,"Ġwagon":2490,"Ġarts":2491,"Ġtents":2492,"Ġtracks":2493,"Ġhug":2494,"Ġlist":2495,"Ġnot":2496,"Ġlanding":2497,"Ġkiss":2498,"Ġcourtyard":2499,"Ġballoons":2500,"Ġdune":2501,"Ġstroller":2502,"Ġsooners":2503,"Ġmirror":2504,"Ġcoffee":2505,"cts":2506,"ot":2507,"arrow":2508,"Ġprin":2509,"Ġcoo":2510,"cking":2511,"itten":2512,"ama":2513,"Ġuses":2514,"Ġeat":2515,"Ġeaster":2516,"Ġheavy":2517,"Ġspid":2518,"Ġreach":2519,"Ġclimbers":2520,"Ġpuck":2521,"Ġhelping":2522,"Ġbarking":2523,"rush":2524,"Ġchee":2525,"Ġmotorcycles":2526,"Ġrolls":2527,"Ġdev":2528,"Ġdisc":2529,"Ġmakeup":2530,"Ġformal":2531,"Ġmonkey":2532,"Ġfetching":2533,"Ġprotest":2534,"Ġhapp":2535,"Ġcardboard":2536,"Ġmedium":2537,"Ġrange":2538,"Ġblurry":2539,"Ġframe":2540,"Ġsuspended":2541,"Ġgrocer":2542,"lit":2543,"ton":2544,"ues":2545,"Ġ5":2546,"Ġti":2547,"Ġtut":2548,"Ġwell":2549,"Ġbending":2550,"Ġinter":2551,"leep":2552,"Ġgr":2553,"Ġfree":2554,"Ġfather":2555,"alls":2556,"hion":2557,"pless":2558,"Ġpee":2559,"Ġcoaster":2560,"illow":2561,"ility":2562,"ami":2563,"Ġfrozen":2564,"Ġraf":2565,"Ġasleep":2566,"Ġneon":2567,"Ġmountainside":2568,"ular":2569,"Ġgolf":2570,"ppy":2571,"Ġblocks":2572,"Ġscar":2573,"Ġjean":2574,"Ġbalc":2575,"Ġflowered":2576,"Ġdef":2577,"Ġdead":2578,"Ġjerseys":2579,"Ġplane":2580,"Ġjogging":2581,"Ġcyclists":2582,"Ġraised":2583,"Ġpatch":2584,"Ġkneels":2585,"Ġtouching":2586,"Ġknit":2587,"Ġpetting":2588,"Ġmiami":2589,"Ġrubber":2590,"Ġbegins":2591,"Ġpracticing":2592,"Ġcrashing":2593,"Ġhappily":2594,"cial":2595,"du":2596,"eled":2597,"ians":2598,"ky":2599,"men":2600,"so":2601,"vie":2602,"inis":2603,"Ġtight":2604,"Ġbend":2605,"Ġpir":2606,"Ġpor":2607,"Ġpump":2608,"Ġdus":2609,"Ġcas":2610,"Ġmess":2611,"Ġonly":2612,"Ġhum":2613,"alley":2614,"lor":2615,"Ġwhist":2616,"Ġplain":2617,"Ġlu":2618,"Ġsnowball":2619,"Ġairplane":2620,"Ġspark":2621,"Ġsport":2622,"Ġforward":2623,"Ġmountaintop":2624,"Ġvar":2625,"Ġbarrel":2626,"Ġhuddle":2627,"Ġdribbles":2628,"Ġflam":2629,"Ġleaving":2630,"Ġsurrounding":2631,"Ġcake":2632,"Ġcrosses":2633,"Ġshoreline":2634,"Ġturning":2635,"Ġtraining":2636,"Ġattire":2637,"Ġtires":2638,"Ġboxing":2639,"izon":2640,"Ġindian":2641,"Ġteenager":2642,"Ġsprayed":2643,"Ġgrinds":2644,"Ġbalcony":2645,"Ġdusk":2646,"clo":2647,"den":2648,"med":2649,"ners":2650,"uits":2651,"Ġ1":2652,"Ġaction":2653,"Ġbin":2654,"Ġsli":2655,"Ġpine":2656,"Ġport":2657,"Ġda":2658,"Ġdim":2659,"Ġcro":2660,"Ġcent":2661,"Ġfarm":2662,"cked":2663,"Ġtown":2664,"Ġcoach":2665,"Ġlots":2666,"bow":2667,"Ġoveralls":2668,"lly":2669,"Ġchur":2670,"ulp":2671,"Ġhandle":2672,"Ġfake":2673,"ures":2674,"Ġhills":2675,"Ġflor":2676,"Ġcomes":2677,"Ġhugs":2678,"Ġhorizon":2679,"Ġamid":2680,"Ġboardwalk":2681,"Ġwrestlers":2682,"Ġattack":2683,"Ġcurb":2684,"Ġcurve":2685,"Ġskirts":2686,"Ġsquare":2687,"Ġracquet":2688,"Ġpoliceman":2689,"Ġbicyclists":2690,"Ġtackled":2691,"Ġalmo":2692,"wheel":2693,"Ġathlet":2694,"Ġsized":2695,"Ġwaterskiing":2696,"Ġgrocery":2697,"Ġporch":2698,"Ġalmost":2699,"bull":2700,"cut":2701,"ind":2702,"tle":2703,"ual":2704,"udy":2705,"Ġ3":2706,"Ġaut":2707,"Ġahead":2708,"Ġty":2709,"Ġtime":2710,"Ġsides":2711,"Ġpan":2712,"Ġpair":2713,"ront":2714,"lebr":2715,"Ġgest":2716,"Ġhow":2717,"Ġfig":2718,"Ġfoam":2719,"Ġtail":2720,"Ġclosed":2721,"Ġmag":2722,"Ġscub":2723,"Ġsculp":2724,"Ġvis":2725,"Ġvalley":2726,"house":2727,"Ġdives":2728,"Ġsheet":2729,"Ġthemsel":2730,"Ġrests":2731,"agle":2732,"Ġsmokes":2733,"Ġkayaker":2734,"Ġworking":2735,"Ġcelebr":2736,"Ġmuzzles":2737,"Ġenjoy":2738,"Ġalley":2739,"Ġcrouching":2740,"Ġcontain":2741,"Ġfriends":2742,"Ġofficer":2743,"Ġsumo":2744,"Ġwrapped":2745,"Ġsculpture":2746,"Ġthemselves":2747,"ales":2748,"day":2749,"die":2750,"fa":2751,"fe":2752,"gie":2753,"igh":2754,"min":2755,"tube":2756,"yle":2757,"Ġ4":2758,"ara":2759,"Ġtile":2760,"Ġtig":2761,"Ġok":2762,"Ġpin":2763,"Ġdin":2764,"rope":2765,"ising":2766,"Ġfirst":2767,"Ġtour":2768,"Ġthin":2769,"umn":2770,"Ġchick":2771,"Ġredheaded":2772,"Ġbeam":2773,"Ġmoves":2774,"Ġpow":2775,"Ġspread":2776,"Ġwoodland":2777,"Ġhike":2778,"Ġcloudy":2779,"Ġpaj":2780,"Ġswimmer":2781,"Ġfest":2782,"Ġfeed":2783,"Ġcones":2784,"Ġconcer":2785,"Ġstrip":2786,"Ġflips":2787,"acher":2788,"Ġcolors":2789,"ists":2790,"Ġexc":2791,"Ġexam":2792,"Ġvehicles":2793,"Ġrainbow":2794,"Ġfollowing":2795,"Ġshower":2796,"Ġgathering":2797,"ized":2798,"Ġknee":2799,"Ġtattoos":2800,"Ġapple":2801,"Ġcandles":2802,"Ġtowel":2803,"Ġcheerleaders":2804,"Ġstudents":2805,"Ġimage":2806,"Ġribbon":2807,"Ġmembers":2808,"Ġmulticolored":2809,"Ġthough":2810,"Ġthumbs":2811,"Ġwindsurf":2812,"Ġscuba":2813,"count":2814,"da":2815,"mon":2816,"tes":2817,"Ġwine":2818,"Ġbrush":2819,"Ġinner":2820,"Ġpalm":2821,"Ġpillow":2822,"Ġmerry":2823,"Ġge":2824,"Ġfans":2825,"ator":2826,"Ġstom":2827,"Ġtopless":2828,"Ġplace":2829,"ersk":2830,"Ġroof":2831,"Ġsnowmo":2832,"ades":2833,"Ġmost":2834,"Ġmove":2835,"Ġleading":2836,"Ġleads":2837,"Ġtrash":2838,"Ġchalk":2839,"Ġshoe":2840,"Ġsoda":2841,"Ġsurfers":2842,"illy":2843,"Ġsandals":2844,"Ġkiddie":2845,"Ġobama":2846,"Ġfeather":2847,"down":2848,"Ġwild":2849,"Ġchews":2850,"Ġteamm":2851,"Ġrollersk":2852,"Ġcave":2853,"Ġcrosswalk":2854,"Ġlift":2855,"Ġspeaking":2856,"Ġvests":2857,"Ġmarking":2858,"Ġturns":2859,"Ġkisses":2860,"Ġpasses":2861,"Ġspraying":2862,"Ġpitcher":2863,"Ġpatio":2864,"Ġgymna":2865,"Ġdrums":2866,"Ġapron":2867,"Ġcolle":2868,"Ġfancy":2869,"Ġsword":2870,"Ġsilhouette":2871,"Ġsharp":2872,"Ġeastern":2873,"Ġcheek":2874,"Ġscarves":2875,"Ġtiger":2876,"Ġstomach":2877,"cl":2878,"dress":2879,"gre":2880,"hood":2881,"ible":2882,"Ġ8":2883,"Ġaer":2884,"Ġaim":2885,"iny":2886,"Ġtub":2887,"Ġsla":2888,"Ġpen":2889,"Ġmom":2890,"late":2891,"Ġfr":2892,"Ġru":2893,"Ġstu":2894,"Ġstool":2895,"ument":2896,"Ġpeak":2897,"Ġswan":2898,"Ġpol":2899,"Ġpot":2900,"Ġcarry":2901,"Ġherself":2902,"Ġspar":2903,"apers":2904,"apped":2905,"Ġitself":2906,"Ġfoggy":2907,"Ġsofa":2908,"lips":2909,"ctor":2910,"Ġcatcher":2911,"Ġtele":2912,"Ġhelp":2913,"Ġscr":2914,"Ġscaling":2915,"Ġmotion":2916,"ways":2917,"Ġconvers":2918,"Ġtables":2919,"Ġliving":2920,"Ġbooth":2921,"Ġboogie":2922,"Ġpret":2923,"Ġeng":2924,"Ġenclo":2925,"Ġseats":2926,"Ġsupp":2927,"Ġmarching":2928,"Ġturned":2929,"Ġspot":2930,"Ġpitbull":2931,"place":2932,"Ġtrip":2933,"Ġbanner":2934,"Ġalso":2935,"Ġsprinklers":2936,"Ġtouches":2937,"Ġsleeps":2938,"Ġhappy":2939,"Ġskinned":2940,"Ġcrawls":2941,"Ġelectric":2942,"Ġembrace":2943,"Ġlistening":2944,"Ġtutu":2945,"Ġpirate":2946,"Ġcenter":2947,"Ġchurch":2948,"country":2949,"bat":2950,"cent":2951,"fight":2952,"hday":2953,"ked":2954,"time":2955,"xed":2956,"Ġke":2957,"Ġtar":2958,"arter":2959,"Ġble":2960,"Ġbirt":2961,"Ġbill":2962,"Ġinline":2963,"anese":2964,"lah":2965,"Ġfle":2966,"Ġwhat":2967,"Ġplayed":2968,"Ġjap":2969,"Ġyo":2970,"Ġshaped":2971,"Ġbeads":2972,"Ġsnowsuit":2973,"Ġloc":2974,"Ġskull":2975,"Ġridden":2976,"Ġres":2977,"Ġchines":2978,"Ġcamer":2979,"Ġseag":2980,"illing":2981,"Ġwalls":2982,"Ġbenches":2983,"gger":2984,"Ġchased":2985,"Ġchew":2986,"Ġbrun":2987,"Ġagility":2988,"Ġcase":2989,"Ġleashes":2990,"Ġbagp":2991,"Ġstares":2992,"Ġretur":2993,"Ġcompete":2994,"ivid":2995,"Ġoppon":2996,"Ġtackling":2997,"Ġrollerblader":2998,"Ġeleph":2999,"Ġindivid":3000,"Ġprotective":3001,"Ġlicks":3002,"Ġexpress":3003,"Ġcircle":3004,"Ġadvertise":3005,"Ġpedest":3006,"Ġcarriage":3007,"Ġrafting":3008,"Ġvarious":3009,"Ġtype":3010,"Ġinnertube":3011,"Ġbirthday":3012,"Ġjapanese":3013,"Ġchinese":3014,"bric":3015,"first":3016,"front":3017,"hat":3018,"lt":3019,"sition":3020,"Ġident":3021,"Ġsings":3022,"ital":3023,"Ġcran":3024,"lete":3025,"Ġmone":3026,"Ġgent":3027,"Ġgaz":3028,"oma":3029,"wood":3030,"Ġyou":3031,"Ġship":3032,"Ġrows":3033,"ilt":3034,"amas":3035,"ely":3036,"aded":3037,"Ġlaun":3038,"Ġlead":3039,"Ġpouring":3040,"Ġbush":3041,"Ġrear":3042,"Ġrecor":3043,"ifier":3044,"Ġneigh":3045,"Ġfoli":3046,"Ġsideways":3047,"Ġpale":3048,"Ġflock":3049,"Ġfloats":3050,"Ġcomple":3051,"aki":3052,"Ġjew":3053,"Ġcafe":3054,"Ġpres":3055,"Ġrailroad":3056,"Ġboxer":3057,"borhood":3058,"Ġdesk":3059,"Ġworkers":3060,"Ġplant":3061,"tails":3062,"Ġphotograp":3063,"Ġraising":3064,"Ġfollowed":3065,"Ġbowling":3066,"Ġretrieving":3067,"Ġsingle":3068,"Ġmusicians":3069,"Ġbounce":3070,"Ġtulips":3071,"Ġtouch":3072,"Ġsleeve":3073,"Ġbathroom":3074,"Ġpicking":3075,"Ġskinny":3076,"Ġnatural":3077,"Ġgarb":3078,"Ġicy":3079,"Ġboulder":3080,"Ġhallway":3081,"Ġspiderman":3082,"Ġdevice":3083,"Ġdaught":3084,"Ġoklah":3085,"Ġpajamas":3086,"Ġfeeding":3087,"Ġgeese":3088,"Ġmarkings":3089,"Ġseagull":3090,"Ġmoney":3091,"Ġgentle":3092,"Ġneighborhood":3093,"Ġoklahoma":3094,"ass":3095,"able":3096,"berman":3097,"com":3098,"eath":3099,"fire":3100,"gy":3101,"ia":3102,"ially":3103,"ka":3104,"nam":3105,"tub":3106,"Ġwig":3107,"Ġbends":3108,"Ġsim":3109,"Ġslight":3110,"Ġsilly":3111,"Ġgall":3112,"Ġgrow":3113,"Ġdoll":3114,"Ġdoberman":3115,"Ġfar":3116,"ature":3117,"esc":3118,"Ġtoo":3119,"Ġtoile":3120,"Ġshade":3121,"Ġrunners":3122,"Ġnarrow":3123,"Ġloun":3124,"Ġeight":3125,"Ġposition":3126,"Ġbul":3127,"Ġtrad":3128,"Ġcamel":3129,"Ġcamels":3130,"Ġfabric":3131,"Ġheadfirst":3132,"Ġteal":3133,"Ġscales":3134,"Ġbeneath":3135,"ggage":3136,"Ġbarren":3137,"akers":3138,"Ġhusk":3139,"Ġlips":3140,"Ġsets":3141,"Ġfisher":3142,"Ġfishes":3143,"Ġswimsuits":3144,"Ġprodu":3145,"aged":3146,"Ġwheels":3147,"Ġlifts":3148,"Ġpartially":3149,"Ġattempt":3150,"Ġlands":3151,"Ġmeet":3152,"Ġsprin":3153,"Ġpatter":3154,"Ġglove":3155,"Ġcontro":3156,"Ġphotographs":3157,"Ġintera":3158,"Ġathlete":3159,"Ġbounds":3160,"Ġcrawling":3161,"Ġworker":3162,"Ġreflection":3163,"Ġcheerleader":3164,"Ġemerges":3165,"Ġprint":3166,"Ġpumpk":3167,"Ġbinoc":3168,"Ġathletic":3169,"Ġautumn":3170,"Ġfigure":3171,"Ġmagaz":3172,"Ġconcert":3173,"achers":3174,"Ġsnowmobile":3175,"Ġmostly":3176,"Ġteammate":3177,"Ġfruit":3178,"Ġstuck":3179,"Ġbleachers":3180,"Ġbrunette":3181,"Ġexpression":3182,"Ġpedestri":3183,"Ġfoliage":3184,"Ġgallery":3185,"aw":3186,"cers":3187,"capped":3188,"ged":3189,"gers":3190,"ipe":3191,"ms":3192,"ored":3193,"uzz":3194,"val":3195,"za":3196,"Ġass":3197,"Ġaqu":3198,"iness":3199,"stick":3200,"Ġweat":3201,"Ġsne":3202,"Ġsup":3203,"Ġinf":3204,"Ġdalm":3205,"Ġcal":3206,"Ġmural":3207,"Ġdon":3208,"Ġhut":3209,"ider":3210,"Ġtops":3211,"Ġplaza":3212,"wning":3213,"orting":3214,"Ġlink":3215,"Ġant":3216,"Ġbeen":3217,"Ġhouses":3218,"Ġevery":3219,"Ġkh":3220,"ific":3221,"ental":3222,"Ġseco":3223,"Ġarc":3224,"Ġmales":3225,"Ġvan":3226,"Ġflops":3227,"Ġtreat":3228,"Ġsheer":3229,"Ġstripes":3230,"Ġflipping":3231,"Ġaged":3232,"Ġcape":3233,"Ġcaps":3234,"ection":3235,"Ġdeer":3236,"Ġfirewor":3237,"Ġbrides":3238,"Ġdistant":3239,"Ġspeaks":3240,"Ġfemales":3241,"Ġmeadow":3242,"Ġbreaking":3243,"Ġpitch":3244,"Ġracers":3245,"Ġdrag":3246,"Ġclean":3247,"Ġbuckets":3248,"Ġartist":3249,"bbling":3250,"Ġmonument":3251,"Ġsniffs":3252,"Ġofficers":3253,"Ġparachut":3254,"Ġcasting":3255,"Ġbrother":3256,"Ġtraveling":3257,"Ġstarting":3258,"Ġgrabs":3259,"Ġparticipate":3260,"Ġrobe":3261,"Ġjockeys":3262,"Ġfloral":3263,"Ġamidst":3264,"Ġpower":3265,"Ġpolka":3266,"Ġdaughter":3267,"Ġslightly":3268,"Ġsneakers":3269,"Ġsecond":3270,"tor":3271,"wa":3272,"Ġesc":3273,"stro":3274,"Ġtran":3275,"Ġtied":3276,"Ġwand":3277,"Ġori":3278,"Ġsat":3279,"Ġinte":3280,"ither":3281,"Ġdand":3282,"Ġdump":3283,"Ġcrying":3284,"Ġmis":3285,"Ġmall":3286,"Ġmur":3287,"Ġmini":3288,"Ġgoo":3289,"Ġfat":3290,"atting":3291,"lded":3292,"oms":3293,"etted":3294,"ork":3295,"Ġplaypen":3296,"Ġarena":3297,"gee":3298,"Ġbay":3299,"Ġbeagle":3300,"Ġgrabb":3301,"ilar":3302,"elry":3303,"box":3304,"Ġskim":3305,"vest":3306,"ashion":3307,"acks":3308,"Ġbund":3309,"Ġspi":3310,"Ġspace":3311,"Ġspins":3312,"ulars":3313,"Ġpush":3314,"Ġpac":3315,"Ġmidst":3316,"Ġhelmeted":3317,"ggling":3318,"Ġbikinis":3319,"Ġflat":3320,"Ġbusiness":3321,"coat":3322,"colate":3323,"Ġcrossed":3324,"orted":3325,"Ġboarding":3326,"Ġskyline":3327,"Ġstairway":3328,"Ġshaved":3329,"ister":3330,"Ġpoint":3331,"Ġsledding":3332,"Ġplan":3333,"ivers":3334,"Ġmasks":3335,"Ġmarked":3336,"itional":3337,"Ġdrawing":3338,"Ġstraight":3339,"Ġretrieves":3340,"Ġmusical":3341,"Ġquarter":3342,"Ġcrouched":3343,"Ġbranches":3344,"Ġspeeds":3345,"Ġinstrument":3346,"Ġbathtub":3347,"Ġtrot":3348,"Ġhardhat":3349,"Ġwakeboarding":3350,"Ġtossing":3351,"Ġbroken":3352,"Ġcandy":3353,"Ġswords":3354,"Ġchocolate":3355,"Ġapproaching":3356,"Ġleafy":3357,"Ġrobes":3358,"Ġcampfire":3359,"Ġrelaxing":3360,"Ġdriveway":3361,"Ġponyta":3362,"Ġhuman":3363,"Ġwhistle":3364,"Ġluggage":3365,"Ġfestival":3366,"Ġexcited":3367,"Ġopponent":3368,"Ġelephant":3369,"Ġadvertisement":3370,"Ġcrane":3371,"Ġjewelry":3372,"Ġgentleman":3373,"Ġcontrol":3374,"Ġbinoculars":3375,"Ġinfant":3376,"Ġkhaki":3377,"Ġarcade":3378,"Ġfireworks":3379,"Ġinterest":3380,"Ġmurky":3381,"Ġgrabbing":3382,"bies":3383,"bars":3384,"can":3385,"hand":3386,"lud":3387,"rings":3388,"uals":3389,"war":3390,"ze":3391,"Ġoper":3392,"Ġsad":3393,"Ġsque":3394,"itor":3395,"Ġpy":3396,"Ġdread":3397,"Ġcage":3398,"iring":3399,"unk":3400,"locks":3401,"Ġstrange":3402,"Ġstill":3403,"ened":3404,"Ġtool":3405,"Ġlines":3406,"ersection":3407,"Ġwaterme":3408,"Ġjumper":3409,"Ġni":3410,"Ġnavy":3411,"cept":3412,"Ġbever":3413,"Ġbelly":3414,"Ġcobble":3415,"iler":3416,"Ġlogs":3417,"Ġeither":3418,"Ġuphill":3419,"rench":3420,"Ġclub":3421,"Ġrep":3422,"icket":3423,"ife":3424,"Ġtag":3425,"Ġwaist":3426,"pper":3427,"Ġpaw":3428,"ubby":3429,"Ġdiver":3430,"Ġhorseback":3431,"Ġopens":3432,"Ġstops":3433,"Ġcann":3434,"Ġfountains":3435,"Ġtoddlers":3436,"Ġkayaks":3437,"weed":3438,"Ġnumbered":3439,"Ġattent":3440,"Ġstars":3441,"Ġsuv":3442,"Ġmeal":3443,"Ġbungee":3444,"Ġknees":3445,"Ġelev":3446,"Ġscenic":3447,"Ġtugging":3448,"Ġtuxed":3449,"Ġdigs":3450,"Ġkites":3451,"Ġsleeved":3452,"Ġrowboat":3453,"Ġstretching":3454,"Ġburied":3455,"Ġintersection":3456,"Ġdusty":3457,"Ġshoveling":3458,"Ġinclud":3459,"Ġadvertising":3460,"Ġmultiple":3461,"Ġpigtails":3462,"Ġcountryside":3463,"Ġsparklers":3464,"Ġflames":3465,"Ġdimly":3466,"Ġvisible":3467,"Ġtripod":3468,"Ġphotographed":3469,"Ġsimilar":3470,"Ġtraditional":3471,"Ġweather":3472,"Ġpacifier":3473,"Ġponytail":3474,"Ġdreadlocks":3475,"Ġwatermelo":3476,"ab":3477,"bed":3478,"een":3479,"fo":3480,"girl":3481,"nes":3482,"pical":3483,"truck":3484,"Ġact":3485,"Ġtv":3486,"Ġbroom":3487,"erc":3488,"Ġcrown":3489,"Ġcru":3490,"Ġgal":3491,"Ġdoors":3492,"Ġfel":3493,"Ġfashion":3494,"Ġhiding":3495,"Ġmane":3496,"long":3497,"oming":3498,"Ġlimb":3499,"Ġlane":3500,"Ġshr":3501,"Ġshoo":3502,"Ġbad":3503,"Ġnav":3504,"Ġbee":3505,"Ġcows":3506,"Ġcovers":3507,"Ġsnowcapped":3508,"illed":3509,"elion":3510,"Ġbicyc":3511,"seum":3512,"Ġridge":3513,"ics":3514,"Ġlett":3515,"Ġheav":3516,"Ġposter":3517,"Ġasc":3518,"Ġchin":3519,"Ġcamping":3520,"Ġgown":3521,"Ġheaddress":3522,"Ġhikes":3523,"Ġswimmers":3524,"Ġcolour":3525,"Ġmusc":3526,"Ġmuseum":3527,"Ġva":3528,"Ġvend":3529,"Ġuniformed":3530,"Ġbarn":3531,"Ġperformer":3532,"Ġadm":3533,"Ġbalance":3534,"Ġwheeled":3535,"Ġsweaters":3536,"Ġopening":3537,"Ġlighting":3538,"Ġfiretruck":3539,"Ġpointed":3540,"Ġwindows":3541,"Ġpushed":3542,"Ġworks":3543,"Ġjogs":3544,"bank":3545,"Ġmotorcyclists":3546,"work":3547,"Ġapart":3548,"Ġpoodles":3549,"Ġstretches":3550,"Ġofficial":3551,"Ġwaterskier":3552,"Ġcards":3553,"Ġfloaties":3554,"Ġtosses":3555,"Ġcheckered":3556,"Ġgliding":3557,"Ġsilhouetted":3558,"Ġapproaches":3559,"Ġelectron":3560,"Ġdescending":3561,"Ġslip":3562,"Ġhandlebars":3563,"Ġgestures":3564,"Ġrollerskating":3565,"Ġaerial":3566,"Ġenclosed":3567,"Ġbillboard":3568,"Ġcameras":3569,"Ġindividuals":3570,"Ġidentical":3571,"Ġgrowling":3572,"Ġtoilet":3573,"Ġlounge":3574,"Ġfisherman":3575,"Ġoriental":3576,"Ġdandelion":3577,"Ġbundled":3578,"Ġtrotting":3579,"Ġcannon":3580,"be":3581,"car":3582,"iers":3583,"lph":3584,"lines":3585,"po":3586,"zes":3587,"Ġ#":3588,"Ġvert":3589,"stri":3590,"Ġtiny":3591,"Ġticket":3592,"inging":3593,"Ġwades":3594,"Ġsna":3595,"Ġselling":3596,"resh":3597,"Ġpoun":3598,"rop":3599,"Ġcr":3600,"Ġcus":3601,"Ġcalm":3602,"Ġmel":3603,"Ġmist":3604,"ision":3605,"Ġdot":3606,"Ġdolph":3607,"labor":3608,"Ġfuzz":3609,"Ġrings":3610,"Ġrally":3611,"ldo":3612,"Ġbor":3613,"ettes":3614,"Ġja":3615,"rad":3616,"Ġya":3617,"urs":3618,"Ġbabies":3619,"Ġnice":3620,"oop":3621,"Ġfrolic":3622,"keys":3623,"Ġeu":3624,"icop":3625,"ically":3626,"Ġleot":3627,"Ġposs":3628,"Ġpops":3629,"Ġoffice":3630,"Ġsoaked":3631,"lig":3632,"Ġhandles":3633,"Ġgoat":3634,"cted":3635,"Ġsec":3636,"Ġarch":3637,"Ġparka":3638,"Ġhelicop":3639,"Ġarmy":3640,"Ġsnowboarders":3641,"Ġbarks":3642,"ffy":3643,"quo":3644,"Ġpathway":3645,"Ġdive":3646,"Ġdang":3647,"Ġdancer":3648,"Ġflute":3649,"Ġbatman":3650,"Ġlip":3651,"Ġdribbling":3652,"Ġdemon":3653,"Ġcollars":3654,"Ġbooks":3655,"Ġpaints":3656,"ations":3657,"Ġnighttime":3658,"ages":3659,"Ġwheeler":3660,"Ġtrainer":3661,"vely":3662,"Ġexerc":3663,"Ġstare":3664,"Ġrailings":3665,"Ġdish":3666,"Ġcarts":3667,"Ġfurn":3668,"Ġpassen":3669,"Ġcanoes":3670,"Ġumbrellas":3671,"Ġmarker":3672,"Ġgraffitied":3673,"Ġunderwear":3674,"Ġtattooed":3675,"Ġlaptop":3676,"Ġbutter":3677,"Ġchains":3678,"Ġstretch":3679,"Ġtropical":3680,"Ġburning":3681,"Ġpicks":3682,"Ġtwirl":3683,"Ġhardwood":3684,"Ġclapping":3685,"Ġweeds":3686,"Ġsummer":3687,"Ġlabrad":3688,"Ġreflective":3689,"Ġextre":3690,"Ġribbons":3691,"Ġmember":3692,"Ġsquirted":3693,"Ġrelaxes":3694,"Ġitems":3695,"Ġdropping":3696,"Ġcooking":3697,"Ġchicken":3698,"Ġtrashcan":3699,"Ġgymnastic":3700,"Ġyouth":3701,"Ġbulldo":3702,"Ġhusky":3703,"Ġpedestrians":3704,"Ġbridesma":3705,"Ġskimpy":3706,"Ġfellow":3707,"Ġmaneu":3708,"Ġshoots":3709,"Ġnavig":3710,"Ġcolourful":3711,"Ġvendor":3712,"Ġfuzzy":3713,"Ġleotard":3714,"Ġhelicopter":3715,"fi":3716,"gu":3717,"gress":3718,"je":3719,"jured":3720,"ker":3721,"lled":3722,"su":3723,"sion":3724,"Ġ6":3725,"inned":3726,"ston":3727,"style":3728,"Ġwade":3729,"Ġwrist":3730,"Ġbump":3731,"Ġsell":3732,"Ġinjured":3733,"ises":3734,"ised":3735,"Ġgood":3736,"Ġhy":3737,"Ġham":3738,"Ġhallow":3739,"ato":3740,"alt":3741,"Ġrust":3742,"Ġstyle":3743,"Ġtor":3744,"ram":3745,"Ġyork":3746,"Ġnap":3747,"Ġbelong":3748,"Ġblind":3749,"Ġske":3750,"Ġoverh":3751,"Ġoverhead":3752,"Ġelabor":3753,"Ġlass":3754,"Ġlacross":3755,"Ġheart":3756,"Ġbackstro":3757,"Ġsporting":3758,"Ġreg":3759,"ift":3760,"Ġfolding":3761,"Ġskateboarders":3762,"rant":3763,"Ġchara":3764,"Ġfacial":3765,"Ġsunlight":3766,"Ġunivers":3767,"Ġmass":3768,"Ġfootballer":3769,"Ġskies":3770,"Ġscore":3771,"Ġmustac":3772,"Ġfloppy":3773,"Ġconf":3774,"Ġcome":3775,"Ġcomm":3776,"Ġshel":3777,"Ġflan":3778,"Ġkicked":3779,"Ġdep":3780,"cot":3781,"Ġcostumed":3782,"ipes":3783,"Ġfireplace":3784,"Ġprogress":3785,"Ġleashed":3786,"Ġbearing":3787,"Ġbottles":3788,"Ġpizz":3789,"Ġmarsh":3790,"Ġjoy":3791,"Ġsubmer":3792,"Ġsprays":3793,"Ġbread":3794,"Ġpitching":3795,"Ġhurdles":3796,"Ġbunny":3797,"Ġflowery":3798,"Ġbouncy":3799,"Ġtuss":3800,"Ġblocking":3801,"where":3802,"Ġstretched":3803,"Ġcasts":3804,"Ġseaweed":3805,"Ġwakeboarder":3806,"Ġscream":3807,"skinned":3808,"Ġbounding":3809,"Ġexplo":3810,"Ġstudio":3811,"Ġnative":3812,"Ġincline":3813,"Ġchoppy":3814,"Ġposts":3815,"Ġtricycles":3816,"Ġmulticolor":3817,"Ġparasailing":3818,"Ġobserves":3819,"Ġdescends":3820,"Ġcook":3821,"Ġtights":3822,"Ġpeeks":3823,"Ġcontainer":3824,"Ġscrat":3825,"Ġtarget":3826,"Ġpresent":3827,"Ġseagulls":3828,"Ġassist":3829,"Ġaqua":3830,"Ġsquee":3831,"Ġbeverage":3832,"Ġcobblest":3833,"Ġincluding":3834,"nesses":3835,"Ġgallo":3836,"Ġheavily":3837,"Ġsnake":3838,"Ġcushion":3839,"Ġeurope":3840,"quoise":3841,"Ġdemonstr":3842,"Ġbridesmaids":3843,"Ġhalloween":3844,"Ġblindfo":3845,"Ġelaborate":3846,"Ġcharact":3847,"bur":3848,"bul":3849,"bby":3850,"bell":3851,"cra":3852,"dion":3853,"drant":3854,"filled":3855,"hite":3856,"ient":3857,"ively":3858,"ments":3859,"ond":3860,"oon":3861,"pain":3862,"pass":3863,"spe":3864,"tal":3865,"tur":3866,"ups":3867,"vo":3868,"vision":3869,"wl":3870,"white":3871,"yon":3872,"Ġ!":3873,"Ġends":3874,"inj":3875,"iner":3876,"aring":3877,"ste":3878,"sters":3879,"Ġtru":3880,"enders":3881,"Ġbent":3882,"Ġoll":3883,"Ġson":3884,"Ġshed":3885,"Ġsort":3886,"iture":3887,"Ġpian":3888,"Ġprie":3889,"Ġpapers":3890,"ange":3891,"Ġcans":3892,"Ġmitt":3893,"Ġgive":3894,"Ġdomin":3895,"lage":3896,"Ġfin":3897,"Ġfiring":3898,"Ġwithin":3899,"Ġmans":3900,"Ġstorm":3901,"Ġstones":3902,"Ġbone":3903,"Ġthings":3904,"Ġlion":3905,"Ġshare":3906,"Ġwatercra":3907,"oops":3908,"Ġbean":3909,"Ġrolled":3910,"Ġhops":3911,"Ġhosp":3912,"riers":3913,"Ġlove":3914,"Ġoutc":3915,"Ġbigger":3916,"Ġmoss":3917,"Ġmouse":3918,"Ġgreat":3919,"Ġlear":3920,"Ġheels":3921,"Ġpop":3922,"Ġpours":3923,"Ġkno":3924,"ash":3925,"Ġrocket":3926,"Ġspons":3927,"Ġrelig":3928,"Ġjumpsuit":3929,"rows":3930,"Ġtractor":3931,"Ġshops":3932,"Ġsold":3933,"Ġsidelines":3934,"Ġseas":3935,"Ġcats":3936,"Ġuncut":3937,"Ġpauses":3938,"shund":3939,"athon":3940,"Ġmug":3941,"Ġsnowboards":3942,"ggle":3943,"rised":3944,"phy":3945,"Ġdarkened":3946,"umbling":3947,"Ġparalle":3948,"Ġlibr":3949,"tty":3950,"Ġdriven":3951,"Ġambul":3952,"Ġnoses":3953,"Ġbackpacker":3954,"Ġphotos":3955,"Ġstove":3956,"Ġcanal":3957,"Ġcanyon":3958,"Ġfirefight":3959,"Ġturquoise":3960,"Ġlifting":3961,"Ġlifted":3962,"Ġsaying":3963,"Ġboxes":3964,"Ġoverlooks":3965,"Ġspeak":3966,"Ġmarathon":3967,"Ġharnesses":3968,"Ġsinger":3969,"cordion":3970,"Ġartific":3971,"Ġcheering":3972,"Ġlogo":3973,"Ġcutout":3974,"Ġbutton":3975,"Ġcarpeted":3976,"Ġbottoms":3977,"Ġowners":3978,"Ġtrophy":3979,"Ġtwist":3980,"Ġmilk":3981,"Ġstrollers":3982,"Ġaccordion":3983,"Ġblurred":3984,"Ġchecking":3985,"Ġzip":3986,"Ġclowns":3987,"sport":3988,"Ġpractices":3989,"Ġwarmly":3990,"Ġgarage":3991,"Ġpiggy":3992,"idential":3993,"Ġpunching":3994,"Ġcarried":3995,"Ġintervie":3996,"Ġtightrope":3997,"wheeler":3998,"Ġchickens":3999,"Ġexamine":4000,"Ġcollege":4001,"Ġreturns":4002,"Ġsprints":4003,"Ġpumpkins":4004,"Ġeverywhere":4005,"Ġtransport":4006,"Ġquarterback":4007,"Ġinteresting":4008,"Ġoperating":4009,"Ġattention":4010,"Ġtuxedos":4011,"Ġelectronic":4012,"Ġvertical":4013,"Ġborder":4014,"Ġdangling":4015,"Ġfurniture":4016,"Ġhydrant":4017,"Ġbelongings":4018,"Ġlacrosse":4019,"Ġbackstroke":4020,"Ġuniversity":4021,"Ġflannel":4022,"Ġpizza":4023,"Ġeuropean":4024,"Ġpriest":4025,"Ġwatercraft":4026,"Ġhospital":4027,"Ġreligious":4028,"Ġparallel":4029,"Ġlibrary":4030,"Ġambulance":4031,"Ġartificial":4032,"ala":4033,"bit":4034,"cam":4035,"drop":4036,"eer":4037,"flow":4038,"iver":4039,"just":4040,"lits":4041,"ming":4042,"made":4043,"thing":4044,"using":4045,"vent":4046,"xing":4047,"zing":4048,"Ġ?":4049,"ender":4050,"Ġwo":4051,"Ġbrow":4052,"Ġsar":4053,"Ġsund":4054,"Ġsister":4055,"Ġinspe":4056,"itch":4057,"Ġtheater":4058,"ret":4059,"Ġdach":4060,"Ġcry":4061,"Ġcups":4062,"Ġfresh":4063,"irrel":4064,"ata":4065,"aters":4066,"ative":4067,"Ġram":4068,"Ġrif":4069,"Ġrus":4070,"Ġstall":4071,"Ġboston":4072,"eter":4073,"Ġplaced":4074,"Ġlim":4075,"urity":4076,"Ġpeers":4077,"ards":4078,"Ġninj":4079,"Ġchip":4080,"Ġbeak":4081,"Ġbelt":4082,"Ġrobo":4083,"Ġromp":4084,"Ġcob":4085,"Ġsnowbank":4086,"Ġhound":4087,"rial":4088,"Ġlock":4089,"Ġskaters":4090,"Ġshirted":4091,"Ġfist":4092,"Ġmobile":4093,"Ġmovie":4094,"Ġoverpass":4095,"icle":4096,"Ġpolo":4097,"Ġpopping":4098,"Ġrag":4099,"Ġbackdrop":4100,"Ġcare":4101,"Ġyelling":4102,"Ġherding":4103,"Ġsplits":4104,"Ġasking":4105,"Ġasph":4106,"aps":4107,"Ġrece":4108,"Ġremo":4109,"Ġfoc":4110,"Ġfolded":4111,"Ġtravers":4112,"Ġchop":4113,"Ġchunk":4114,"Ġcamps":4115,"Ġsocks":4116,"Ġmountainous":4117,"ppers":4118,"Ġpug":4119,"test":4120,"Ġteles":4121,"Ġhilly":4122,"Ġskiiers":4123,"Ġvil":4124,"Ġfencing":4125,"Ġobsc":4126,"Ġperformance":4127,"Ġcontest":4128,"Ġadjust":4129,"Ġdancers":4130,"Ġhighway":4131,"Ġchecks":4132,"Ġhawa":4133,"Ġbatt":4134,"Ġbatter":4135,"Ġparents":4136,"Ġballet":4137,"used":4138,"Ġboards":4139,"Ġguitars":4140,"Ġguitarist":4141,"Ġforested":4142,"Ġbears":4143,"Ġpads":4144,"ustrial":4145,"Ġsleds":4146,"Ġtrump":4147,"Ġexhi":4148,"Ġnumbers":4149,"Ġobstacles":4150,"Ġsax":4151,"Ġcere":4152,"Ġmarble":4153,"Ġjogger":4154,"Ġspout":4155,"Ġsuburban":4156,"Ġsquatting":4157,"Ġsquirrel":4158,"Ġbreed":4159,"Ġraincoat":4160,"Ġraise":4161,"Ġdrain":4162,"Ġdragging":4163,"Ġstrapped":4164,"Ġbowls":4165,"Ġtackles":4166,"Ġevening":4167,"Ġretrieve":4168,"Ġlower":4169,"Ġscenery":4170,"Ġindustrial":4171,"Ġcute":4172,"Ġknife":4173,"Ġpadded":4174,"leton":4175,"Ġplates":4176,"Ġamongst":4177,"iously":4178,"Ġtrots":4179,"Ġvideot":4180,"Ġguns":4181,"Ġclad":4182,"Ġpractice":4183,"Ġacro":4184,"Ġtossed":4185,"Ġenter":4186,"Ġglider":4187,"Ġtravels":4188,"Ġextended":4189,"Ġguarding":4190,"Ġdirections":4191,"Ġcrashes":4192,"Ġparticipating":4193,"Ġsquirting":4194,"Ġjuice":4195,"Ġjuggling":4196,"Ġsailboat":4197,"Ġwashing":4198,"Ġemerging":4199,"Ġspider":4200,"Ġpeeking":4201,"Ġhorizontal":4202,"Ġcelebrating":4203,"minton":4204,"Ġtiled":4205,"Ġpinata":4206,"Ġdinner":4207,"Ġtourists":4208,"Ġwindsurfer":4209,"Ġgymnast":4210,"climb":4211,"green":4212,"Ġaiming":4213,"Ġpotato":4214,"Ġtelephone":4215,"Ġtelevision":4216,"Ġpretending":4217,"Ġbagpipes":4218,"Ġlaunches":4219,"Ġsleeveless":4220,"Ġgarbage":4221,"nament":4222,"Ġpatterned":4223,"Ġinteracting":4224,"Ġmagazines":4225,"sticks":4226,"Ġescala":4227,"Ġplank":4228,"Ġshrub":4229,"Ġbadminton":4230,"Ġbicycler":4231,"Ġmuscular":4232,"Ġyawning":4233,"Ġfrolics":4234,"Ġsecurity":4235,"Ġlabrador":4236,"Ġextreme":4237,"Ġbulldog":4238,"Ġskeleton":4239,"Ġmustache":4240,"Ġcommun":4241,"Ġcobblestone":4242,"Ġcharacters":4243,"turned":4244,"Ġpiano":4245,"Ġtransportation":4246,"Ġdachshund":4247,"Ġramps":4248,"Ġninja":4249,"Ġrobot":4250,"Ġasphalt":4251,"Ġchopsticks":4252,"Ġtelesco":4253,"Ġhawai":4254,"bs":4255,"bing":4256,"bag":4257,"barrow":4258,"dish":4259,"for":4260,"gi":4261,"ique":4262,"jump":4263,"mat":4264,"own":4265,"port":4266,"pipe":4267,"prised":4268,"ride":4269,"tain":4270,"wed":4271,"Ġrou":4272,"Ġig":4273,"Ġara":4274,"Ġalike":4275,"Ġavo":4276,"Ġtet":4277,"Ġted":4278,"Ġtee":4279,"Ġtape":4280,"Ġovers":4281,"Ġsy":4282,"Ġsacks":4283,"Ġpoo":4284,"Ġpri":4285,"Ġpress":4286,"Ġdy":4287,"Ġditch":4288,"erby":4289,"Ġcries":4290,"Ġmin":4291,"Ġmain":4292,"Ġgen":4293,"Ġgas":4294,"Ġgna":4295,"Ġfed":4296,"ense":4297,"ida":4298,"oring":4299,"Ġthre":4300,"rait":4301,"Ġlun":4302,"oned":4303,"umer":4304,"ersa":4305,"Ġnur":4306,"Ġreddish":4307,"Ġang":4308,"Ġrott":4309,"immed":4310,"Ġgras":4311,"iled":4312,"american":4313,"body":4314,"Ġuse":4315,"Ġmod":4316,"Ġmout":4317,"Ġgreet":4318,"tops":4319,"Ġem":4320,"Ġeagle":4321,"Ġpokes":4322,"Ġpotted":4323,"Ġrack":4324,"Ġkitten":4325,"Ġkilt":4326,"Ġbacklit":4327,"Ġbucking":4328,"Ġclings":4329,"Ġspre":4330,"Ġspan":4331,"Ġsurprised":4332,"Ġchalle":4333,"Ġcamo":4334,"Ġhanding":4335,"Ġheaded":4336,"Ġsunsh":4337,"tered":4338,"Ġtest":4339,"Ġunus":4340,"ieval":4341,"Ġskips":4342,"shaped":4343,"Ġvine":4344,"hore":4345,"Ġpurses":4346,"Ġbaseman":4347,"Ġperformers":4348,"Ġfeathered":4349,"Ġtracksuit":4350,"Ġstripe":4351,"Ġhorns":4352,"Ġbats":4353,"Ġcoloring":4354,"Ġcouples":4355,"Ġdried":4356,"Ġflapping":4357,"shirts":4358,"Ġstepping":4359,"Ġsteering":4360,"Ġveget":4361,"Ġcaut":4362,"Ġcable":4363,"Ġskysc":4364,"Ġprop":4365,"weiler":4366,"Ġtrains":4367,"Ġearrings":4368,"Ġdistorted":4369,"Ġsailing":4370,"Ġstarring":4371,"Ġseattle":4372,"Ġstores":4373,"Ġboxers":4374,"born":4375,"Ġspecial":4376,"Ġkayakers":4377,"Ġdisk":4378,"Ġcartwheel":4379,"Ġwords":4380,"Ġplu":4381,"Ġceiling":4382,"Ġsucking":4383,"Ġcycling":4384,"Ġmarch":4385,"Ġmaroon":4386,"Ġpolicemen":4387,"Ġsnar":4388,"Ġsnack":4389,"Ġsnap":4390,"Ġpaperwork":4391,"Ġdragon":4392,"Ġstraps":4393,"sely":4394,"Ġpatches":4395,"Ġcreating":4396,"Ġmusician":4397,"Ġstatues":4398,"Ġbounces":4399,"Ġmonster":4400,"Ġfetches":4401,"Ġcowboys":4402,"Ġcutting":4403,"Ġclearing":4404,"Ġblocked":4405,"Ġforehead":4406,"Ġdrummer":4407,"Ġfairy":4408,"Ġfairground":4409,"Ġmarketplace":4410,"Ġpets":4411,"Ġwritten":4412,"wheeled":4413,"Ġclaus":4414,"Ġmedieval":4415,"Ġtowed":4416,"Ġreflecting":4417,"Ġcircuit":4418,"Ġhotel":4419,"Ġshovels":4420,"Ġstarts":4421,"Ġeyeb":4422,"Ġserve":4423,"Ġserious":4424,"Ġnewborn":4425,"Ġembracing":4426,"Ġsharing":4427,"Ġbrace":4428,"Ġlistens":4429,"inished":4430,"Ġlush":4431,"Ġflorida":4432,"Ġcontaining":4433,"Ġexamining":4434,"Ġapples":4435,"Ġfeathers":4436,"Ġslalo":4437,"Ġkeep":4438,"Ġtarp":4439,"Ġlocated":4440,"Ġresidential":4441,"Ġbagpipe":4442,"Ġmeeting":4443,"Ġmagazine":4444,"Ġsuper":4445,"Ġdalmat":4446,"Ġdalmation":4447,"Ġcleaning":4448,"Ġpyram":4449,"Ġwatermelon":4450,"Ġascending":4451,"Ġadmire":4452,"Ġpounces":4453,"Ġpassengers":4454,"Ġrusty":4455,"Ġsubmerged":4456,"Ġtussle":4457,"Ġtrucks":4458,"Ġdomino":4459,"Ġbeanie":4460,"Ġoutcro":4461,"Ġseashore":4462,"camera":4463,"Ġcampsite":4464,"Ġvillage":4465,"Ġtrumpet":4466,"Ġexhibit":4467,"Ġsaxo":4468,"Ġacrobat":4469,"Ġescalator":4470,"Ġtelescope":4471,"Ġhawaiian":4472,"Ġarab":4473,"Ġteddy":4474,"Ġchalleng":4475,"Ġunusual":4476,"Ġskyscra":4477,"Ġpyramid":4478,"ael":4479,"bones":4480,"cc":4481,"em":4482,"ex":4483,"fy":4484,"fly":4485,"gue":4486,"ggs":4487,"hoops":4488,"ild":4489,"ilor":4490,"kle":4491,"lined":4492,"mes":4493,"mony":4494,"net":4495,"nas":4496,"odle":4497,"pie":4498,"prin":4499,"ral":4500,"sure":4501,"ti":4502,"vol":4503,"wear":4504,"Ġel":4505,"Ġill":4506,"Ġaband":4507,"Ġawning":4508,"ndle":4509,"int":4510,"store":4511,"Ġtil":4512,"Ġtrench":4513,"Ġbitten":4514,"Ġox":4515,"Ġoar":4516,"Ġocc":4517,"Ġswo":4518,"Ġsear":4519,"Ġsite":4520,"Ġsam":4521,"Ġinstru":4522,"Ġinvol":4523,"Ġdj":4524,"erial":4525,"erns":4526,"lee":4527,"Ġmer":4528,"Ġmick":4529,"Ġgla":4530,"Ġfling":4531,"Ġfrench":4532,"Ġhides":4533,"ided":4534,"Ġbon":4535,"roud":4536,"Ġplayful":4537,"Ġjar":4538,"Ġjud":4539,"Ġthick":4540,"Ġlining":4541,"Ġshades":4542,"umble":4543,"hift":4544,"pled":4545,"ples":4546,"plets":4547,"itty":4548,"Ġpeach":4549,"Ġpeaks":4550,"Ġwatery":4551,"Ġbale":4552,"Ġnumer":4553,"Ġankle":4554,"Ġbegging":4555,"Ġberet":4556,"Ġcop":4557,"Ġcond":4558,"Ġcoast":4559,"Ġgradu":4560,"Ġhopping":4561,"Ġsmelling":4562,"Ġmoon":4563,"Ġmoust":4564,"seen":4565,"ains":4566,"Ġoverwe":4567,"ictor":4568,"Ġlav":4569,"Ġlamp":4570,"Ġhell":4571,"Ġupward":4572,"Ġkitty":4573,"Ġcarving":4574,"Ġcarrier":4575,"Ġbug":4576,"Ġbuy":4577,"Ġairport":4578,"Ġsomthing":4579,"Ġsomersa":4580,"apes":4581,"Ġresc":4582,"Ġreally":4583,"Ġrecent":4584,"icker":4585,"Ġneed":4586,"Ġtray":4587,"Ġtrailing":4588,"rance":4589,"Ġchubby":4590,"Ġtags":4591,"Ġsoaking":4592,"Ġsoaring":4593,"lies":4594,"Ġjacks":4595,"Ġhandbag":4596,"Ġgondo":4597,"ooth":4598,"Ġsees":4599,"Ġseating":4600,"Ġpuffy":4601,"ills":4602,"illar":4603,"Ġteaching":4604,"Ġunf":4605,"Ġunseen":4606,"Ġhello":4607,"Ġbloss":4608,"Ġpail":4609,"Ġsco":4610,"Ġvictor":4611,"Ġbaskets":4612,"Ġhaircut":4613,"Ġpurch":4614,"Ġpursu":4615,"phard":4616,"Ġcongre":4617,"Ġclothed":4618,"Ġtreads":4619,"Ġshephard":4620,"Ġrival":4621,"Ġstriking":4622,"Ġbatting":4623,"Ġcolorfully":4624,"cess":4625,"Ġnote":4626,"Ġnoodle":4627,"Ġsteers":4628,"Ġdefla":4629,"Ġleague":4630,"Ġbackpacking":4631,"Ġcliffs":4632,"Ġcrossbones":4633,"Ġcanv":4634,"Ġskyd":4635,"Ġbrindle":4636,"Ġturkeys":4637,"Ġwheelbarrow":4638,"Ġbridal":4639,"Ġpointy":4640,"Ġteens":4641,"Ġeyed":4642,"Ġexcept":4643,"Ġsale":4644,"Ġattra":4645,"Ġrails":4646,"Ġstorefront":4647,"Ġcorgi":4648,"Ġmaterial":4649,"Ġcartwhe":4650,"Ġtongues":4651,"Ġcrack":4652,"Ġcraft":4653,"Ġcrash":4654,"Ġorder":4655,"Ġmex":4656,"Ġspoon":4657,"Ġspring":4658,"Ġappar":4659,"Ġstunts":4660,"Ġstruggle":4661,"Ġhorsesho":4662,"Ġslopes":4663,"Ġcigarettes":4664,"Ġformally":4665,"Ġbookstore":4666,"Ġevil":4667,"Ġbanners":4668,"Ġgathers":4669,"Ġgymnas":4670,"Ġcrev":4671,"Ġcanoeing":4672,"Ġpieces":4673,"bands":4674,"izing":4675,"Ġhomemade":4676,"Ġdigital":4677,"Ġsleeves":4678,"Ġspeeding":4679,"Ġbutt":4680,"unges":4681,"Ġwrites":4682,"Ġpacked":4683,"Ġcompan":4684,"Ġcastle":4685,"Ġtwin":4686,"Ġmotorbikes":4687,"Ġpiercing":4688,"Ġoutstreached":4689,"Ġsumm":4690,"Ġcolum":4691,"Ġchecked":4692,"Ġframed":4693,"Ġentert":4694,"Ġmachines":4695,"Ġbeginning":4696,"Ġparticipates":4697,"Ġjuggles":4698,"Ġnewly":4699,"Ġparasail":4700,"Ġparasails":4701,"Ġdroplets":4702,"Ġbouquet":4703,"Ġobserving":4704,"Ġprinted":4705,"Ġgrins":4706,"Ġsparkler":4707,"Ġflaming":4708,"Ġattacking":4709,"Ġathletes":4710,"Ġfestive":4711,"Ġaero":4712,"Ġpretend":4713,"Ġenclosure":4714,"Ġflee":4715,"Ġresort":4716,"Ġrecord":4717,"Ġdollar":4718,"Ġtooth":4719,"Ġpattern":4720,"Ġinteract":4721,"Ġpumpkin":4722,"Ġexpressions":4723,"Ġsuperman":4724,"Ġparachuting":4725,"Ġsaddle":4726,"Ġelevator":4727,"Ġletters":4728,"Ġvaul":4729,"Ġmelting":4730,"Ġjagged":4731,"Ġpossession":4732,"Ġlipstick":4733,"Ġbutterfly":4734,"Ġchainsaw":4735,"Ġgymnastics":4736,"field":4737,"Ġoverhang":4738,"Ġlasso":4739,"Ġgalloping":4740,"Ġsponsored":4741,"Ġsoldier":4742,"Ġfirefighter":4743,"Ġceremony":4744,"Ġcommunity":4745,"Ġlunch":4746,"Ġslalom":4747,"Ġoutcropping":4748,"Ġchallenging":4749,"piece":4750,"Ġswoo":4751,"Ġmickey":4752,"Ġoverweight":4753,"Ġrescue":4754,"Ġrecently":4755,"Ġcongreg":4756,"Ġdeflated":4757,"Ġgymnasium":4758,"act":4759,"ba":4760,"bird":4761,"brush":4762,"ca":4763,"cla":4764,"cier":4765,"ded":4766,"deep":4767,"ees":4768,"flo":4769,"flight":4770,"iet":4771,"iving":4772,"iped":4773,"lican":4774,"lish":4775,"lider":4776,"pan":4777,"pers":4778,"uc":4779,"ura":4780,"uch":4781,"vy":4782,"water":4783,"yer":4784,"yond":4785,"zag":4786,"Ġ(":4787,"Ġif":4788,"Ġque":4789,"Ġab":4790,"Ġawa":4791,"ina":4792,"aroo":4793,"stal":4794,"Ġtap":4795,"Ġtumbling":4796,"Ġbark":4797,"Ġodd":4798,"Ġsal":4799,"Ġsight":4800,"Ġsong":4801,"Ġself":4802,"Ġinse":4803,"Ġinvest":4804,"rent":4805,"Ġpens":4806,"Ġpillar":4807,"Ġdren":4808,"ern":4809,"eric":4810,"robe":4811,"Ġcrest":4812,"Ġcust":4813,"Ġming":4814,"Ġmor":4815,"Ġmap":4816,"iss":4817,"ison":4818,"isper":4819,"Ġgrown":4820,"Ġgam":4821,"Ġgig":4822,"Ġfit":4823,"Ġfrown":4824,"Ġfrying":4825,"Ġferry":4826,"Ġfilling":4827,"Ġhun":4828,"Ġstack":4829,"Ġstrings":4830,"Ġstoop":4831,"enian":4832,"Ġwhisper":4833,"esus":4834,"etti":4835,"Ġtoe":4836,"Ġplayhouse":4837,"Ġjesus":4838,"Ġthan":4839,"Ġlime":4840,"Ġlunges":4841,"chan":4842,"chael":4843,"Ġshines":4844,"Ġshining":4845,"Ġshiny":4846,"umm":4847,"noon":4848,"Ġpelican":4849,"Ġwaterway":4850,"Ġbass":4851,"Ġna":4852,"Ġnud":4853,"vering":4854,"Ġange":4855,"Ġbeyond":4856,"imon":4857,"Ġsnowman":4858,"illi":4859,"aman":4860,"ried":4861,"elled":4862,"Ġsmooth":4863,"ady":4864,"Ġbib":4865,"Ġused":4866,"Ġswans":4867,"Ġswamp":4868,"Ġeas":4869,"ices":4870,"Ġlamb":4871,"Ġlens":4872,"Ġhear":4873,"Ġupper":4874,"Ġrapp":4875,"Ġrabb":4876,"Ġkang":4877,"Ġkind":4878,"Ġkimon":4879,"Ġbackward":4880,"Ġfields":4881,"Ġrocking":4882,"Ġgreenery":4883,"Ġgreenhouse":4884,"Ġbudd":4885,"Ġbuggy":4886,"Ġbuilt":4887,"Ġstrewn":4888,"Ġspir":4889,"Ġrecl":4890,"Ġfog":4891,"Ġchar":4892,"Ġchange":4893,"Ġcamcor":4894,"Ġoffering":4895,"Ġtax":4896,"Ġtails":4897,"Ġsound":4898,"Ġsoars":4899,"Ġmountaineer":4900,"ently":4901,"Ġgot":4902,"Ġgoats":4903,"Ġsidecar":4904,"Ġsequ":4905,"Ġseeds":4906,"Ġcrowds":4907,"eeps":4908,"Ġteaches":4909,"Ġsling":4910,"Ġunion":4911,"Ġunique":4912,"ielding":4913,"Ġfootballers":4914,"Ġscra":4915,"Ġscant":4916,"Ġmuch":4917,"Ġhairy":4918,"Ġmotorized":4919,"Ġarmenian":4920,"Ġfencers":4921,"Ġperf":4922,"Ġperched":4923,"Ġperio":4924,"Ġfeeds":4925,"Ġflood":4926,"Ġguide":4927,"quid":4928,"Ġdiaper":4929,"Ġcomf":4930,"Ġtrek":4931,"Ġwilder":4932,"Ġthemed":4933,"Ġstripped":4934,"Ġcheers":4935,"Ġflipped":4936,"Ġbattle":4937,"Ġparag":4938,"Ġwets":4939,"Ġliquid":4940,"ache":4941,"Ġcollide":4942,"Ġdrift":4943,"Ġflaps":4944,"ushi":4945,"Ġsteam":4946,"Ġwhose":4947,"coura":4948,"Ġwrestles":4949,"Ġfireman":4950,"ational":4951,"Ġpretty":4952,"Ġsurfboarder":4953,"Ġener":4954,"Ġtrails":4955,"Ġearring":4956,"Ġearphones":4957,"Ġpilo":4958,"Ġcowgirl":4959,"Ġsails":4960,"Ġcurtain":4961,"Ġcurrent":4962,"Ġcords":4963,"Ġoverlook":4964,"Ġretre":4965,"Ġdesign":4966,"Ġworld":4967,"Ġcompetit":4968,"Ġharbor":4969,"Ġmascot":4970,"Ġmakeshift":4971,"Ġcellphones":4972,"Ġsquats":4973,"Ġstruggles":4974,"Ġhooping":4975,"Ġcanopy":4976,"Ġbreaks":4977,"Ġprepare":4978,"Ġrainy":4979,"Ġwaterfalls":4980,"Ġstrap":4981,"Ġbowler":4982,"Ġterriers":4983,"Ġcreature":4984,"Ġquad":4985,"Ġpaintball":4986,"Ġmonitor":4987,"adows":4988,"Ġcontroll":4989,"Ġhalter":4990,"Ġbathrobe":4991,"Ġdunes":4992,"Ġdunking":4993,"Ġpierced":4994,"Ġmichael":4995,"Ġnewspapers":4996,"Ġformations":4997,"questri":4998,"Ġrubs":4999,"Ġentrance":5000,"Ġprofile":5001,"Ġcircular":5002,"Ġglides":5003,"Ġnature":5004,"Ġguards":5005,"Ġcomputers":5006,"Ġstrawber":5007,"Ġposters":5008,"Ġsquirts":5009,"Ġseries":5010,"Ġclassic":5011,"Ġpunk":5012,"ocide":5013,"Ġbraids":5014,"Ġcheeks":5015,"Ġtutus":5016,"Ġrafts":5017,"Ġdefending":5018,"Ġmessy":5019,"Ġ19":5020,"Ġportrait":5021,"Ġgesture":5022,"Ġcelebrate":5023,"Ġdiner":5024,"Ġtournament":5025,"Ġpowder":5026,"Ġwindsurfing":5027,"dressed":5028,"Ġsparring":5029,"Ġconversation":5030,"Ġbooths":5031,"Ġsupport":5032,"Ġspotlight":5033,"Ġlocation":5034,"Ġcameraman":5035,"Ġindividual":5036,"Ġgazing":5037,"Ġgazes":5038,"Ġcomplete":5039,"comes":5040,"Ġcalf":5041,"Ġcalled":5042,"Ġdumps":5043,"Ġgoose":5044,"Ġgoofy":5045,"Ġtools":5046,"Ġrepels":5047,"Ġwatermelons":5048,"Ġfashioned":5049,"Ġapartment":5050,"Ġmisty":5051,"Ġdolphin":5052,"Ġdolphins":5053,"Ġexercise":5054,"Ġtwirling":5055,"Ġmaneuvers":5056,"Ġnavigates":5057,"Ġbumpy":5058,"Ġhambur":5059,"Ġconfetti":5060,"Ġscreams":5061,"Ġexplosion":5062,"Ġpresentation":5063,"Ġblindfolded":5064,"Ġollie":5065,"Ġfinish":5066,"Ġmossy":5067,"Ġtwisting":5068,"flowers":5069,"Ġlockers":5070,"Ġcarefully":5071,"Ġshrubs":5072,"Ġgenocide":5073,"Ġgnawing":5074,"Ġrottweiler":5075,"Ġcaution":5076,"Ġeyebrows":5077,"Ġbracelet":5078,"Ġskyscraper":5079,"Ġmerch":5080,"Ġglacier":5081,"Ġnumerous":5082,"Ġgraduation":5083,"Ġmoustache":5084,"Ġjackson":5085,"Ġgondola":5086,"Ġcanvas":5087,"Ġcartwheels":5088,"Ġsummit":5089,"Ġentertain":5090,"Ġinsect":5091,"Ġinvestig":5092,"Ġdrenched":5093,"Ġcustom":5094,"Ġmorning":5095,"Ġswampy":5096,"Ġkangaroo":5097,"Ġcamcorder":5098,"Ġscantily":5099,"Ġwilderness":5100,"questrian":5101,"Ġhamburgers":5102,"airl":5103,"con":5104,"dile":5105,"dium":5106,"eps":5107,"ga":5108,"gun":5109,"gant":5110,"groud":5111,"hap":5112,"ib":5113,"ior":5114,"iel":5115,"ives":5116,"ips":5117,"ipping":5118,"lts":5119,"lick":5120,"nate":5121,"nie":5122,"olo":5123,"pit":5124,"park":5125,"rid":5126,"shes":5127,"swing":5128,"smen":5129,"slee":5130,"tie":5131,"uis":5132,"ula":5133,"uss":5134,"uble":5135,"ually":5136,"vet":5137,"vag":5138,"viz":5139,"Ġ&":5140,"Ġ)":5141,"Ġing":5142,"Ġir":5143,"Ġaid":5144,"Ġaward":5145,"Ġado":5146,"Ġaler":5147,"Ġactive":5148,"Ġacting":5149,"ares":5150,"sting":5151,"Ġtim":5152,"Ġtink":5153,"Ġties":5154,"Ġtumble":5155,"arth":5156,"Ġwol":5157,"Ġwicker":5158,"Ġbit":5159,"Ġbru":5160,"Ġoly":5161,"Ġsin":5162,"Ġsash":5163,"itish":5164,"Ġpom":5165,"Ġpon":5166,"Ġpran":5167,"Ġpist":5168,"Ġdad":5169,"Ġdining":5170,"Ġderby":5171,"erbell":5172,"anut":5173,"anas":5174,"anging":5175,"Ġmes":5176,"Ġmount":5177,"Ġglow":5178,"Ġgey":5179,"Ġgated":5180,"Ġdots":5181,"Ġdouble":5182,"laps":5183,"Ġfal":5184,"Ġfell":5185,"Ġhump":5186,"Ġhad":5187,"Ġhig":5188,"Ġhung":5189,"ckled":5190,"Ġisra":5191,"Ġisland":5192,"Ġrv":5193,"lds":5194,"Ġsta":5195,"Ġstay":5196,"Ġwhom":5197,"Ġboa":5198,"Ġbows":5199,"Ġplacing":5200,"andise":5201,"ory":5202,"orter":5203,"Ġjeeps":5204,"raised":5205,"ravag":5206,"Ġlant":5207,"cho":5208,"Ġshadows":5209,"Ġrunway":5210,"Ġatm":5211,"itted":5212,"Ġpeanut":5213,"Ġwatering":5214,"Ġbales":5215,"Ġnip":5216,"Ġanc":5217,"Ġbeat":5218,"Ġbeers":5219,"Ġbeaded":5220,"Ġbecomes":5221,"Ġcoal":5222,"Ġcott":5223,"Ġbrownish":5224,"Ġsnows":5225,"Ġsnowing":5226,"Ġhovering":5227,"ilight":5228,"Ġbluff":5229,"ambo":5230,"Ġfrog":5231,"Ġfrolick":5232,"riger":5233,"Ġloll":5234,"Ġloading":5235,"Ġsmear":5236,"Ġblueje":5237,"ador":5238,"boy":5239,"Ġus":5240,"Ġund":5241,"Ġfind":5242,"Ġdownto":5243,"Ġmore":5244,"Ġmoder":5245,"Ġballer":5246,"Ġlitter":5247,"ained":5248,"Ġovercoat":5249,"Ġridding":5250,"boarder":5251,"Ġeggs":5252,"Ġequestrian":5253,"Ġearth":5254,"Ġlaid":5255,"Ġled":5256,"Ġlegg":5257,"Ġlegged":5258,"Ġheight":5259,"Ġpoking":5260,"Ġpocket":5261,"Ġposed":5262,"Ġpodium":5263,"ksha":5264,"Ġupon":5265,"Ġupset":5266,"Ġupturned":5267,"Ġupraised":5268,"Ġcarring":5269,"Ġherd":5270,"Ġclut":5271,"Ġclinging":5272,"Ġnearly":5273,"Ġstreaks":5274,"Ġsplit":5275,"Ġfort":5276,"Ġrec":5277,"Ġreal":5278,"Ġreve":5279,"Ġrecept":5280,"Ġchatting":5281,"Ġchairl":5282,"Ġoffers":5283,"Ġsoap":5284,"Ġsomebody":5285,"Ġjacked":5286,"Ġhanded":5287,"Ġhandic":5288,"Ġhandgun":5289,"Ġseal":5290,"Ġsewing":5291,"Ġpugs":5292,"Ġheading":5293,"Ġheadset":5294,"Ġhips":5295,"Ġsocial":5296,"Ġclover":5297,"Ġcloses":5298,"Ġclosely":5299,"Ġteacher":5300,"Ġfootprin":5301,"Ġunhap":5302,"Ġpaying":5303,"Ġscru":5304,"Ġscary":5305,"Ġvac":5306,"Ġdrilling":5307,"Ġroadway":5308,"ggan":5309,"rise":5310,"Ġobje":5311,"Ġfloors":5312,"dog":5313,"Ġunderground":5314,"nected":5315,"Ġguiding":5316,"Ġconcent":5317,"Ġconfront":5318,"Ġconnected":5319,"Ġcombat":5320,"Ġsignal":5321,"Ġador":5322,"Ġshelt":5323,"Ġstrike":5324,"Ġstrips":5325,"Ġchess":5326,"Ġhawk":5327,"Ġpara":5328,"Ġparent":5329,"Ġparlor":5330,"Ġflowing":5331,"Ġbringing":5332,"Ġbritish":5333,"Ġcapes":5334,"ndogs":5335,"upied":5336,"Ġwhen":5337,"codile":5338,"Ġlease":5339,"Ġcollared":5340,"Ġstopped":5341,"Ġcane":5342,"Ġboarder":5343,"Ġafternoon":5344,"Ġbricks":5345,"Ġshawl":5346,"Ġturb":5347,"Ġbedroom":5348,"Ġpasta":5349,"Ġpasture":5350,"jected":5351,"Ġprey":5352,"Ġsurfboards":5353,"Ġencoura":5354,"Ġsledge":5355,"Ġwint":5356,"Ġpartly":5357,"Ġsaber":5358,"Ġsailor":5359,"Ġcorndogs":5360,"Ġmats":5361,"Ġworn":5362,"Ġornam":5363,"Ġornate":5364,"Ġplushi":5365,"Ġmarx":5366,"Ġjog":5367,"Ġmean":5368,"Ġmechan":5369,"Ġsquin":5370,"Ġdocked":5371,"Ġbreath":5372,"Ġbreeds":5373,"Ġpitches":5374,"Ġwaterfront":5375,"Ġcigars":5376,"Ġviewer":5377,"mbling":5378,"Ġdramat":5379,"Ġstraddle":5380,"Ġharnessed":5381,"Ġrefriger":5382,"Ġstructures":5383,"Ġinflated":5384,"Ġkneel":5385,"Ġbulls":5386,"Ġelegant":5387,"Ġartists":5388,"Ġquiet":5389,"stride":5390,"Ġtatoo":5391,"Ġgloved":5392,"Ġscooters":5393,"Ġprotect":5394,"Ġprotection":5395,"Ġlegos":5396,"Ġclears":5397,"outs":5398,"Ġcoverings":5399,"Ġwinding":5400,"Ġspeedo":5401,"Ġfilms":5402,"Ġdisplaying":5403,"Ġdisplays":5404,"Ġwaiter":5405,"Ġintently":5406,"Ġdunks":5407,"Ġdirect":5408,"Ġtwig":5409,"Ġtwilight":5410,"Ġpaintings":5411,"Ġmedals":5412,"Ġpulley":5413,"Ġwakeboards":5414,"Ġmilksha":5415,"Ġacc":5416,"Ġaccom":5417,"Ġwea":5418,"Ġweb":5419,"Ġcheerleading":5420,"Ġrounds":5421,"Ġbroad":5422,"Ġcandle":5423,"Ġwires":5424,"Ġ23":5425,"Ġ28":5426,"Ġcolumn":5427,"Ġdecorative":5428,"Ġframes":5429,"Ġrubbing":5430,"Ġzoo":5431,"Ġzig":5432,"Ġnecklaces":5433,"Ġincoming":5434,"Ġextends":5435,"Ġextravag":5436,"Ġapproach":5437,"Ġwrapping":5438,"Ġleafless":5439,"Ġsize":5440,"Ġsuspenders":5441,"Ġcampus":5442,"ousine":5443,"Ġpunches":5444,"Ġjetty":5445,"Ġdrops":5446,"Ġobserve":5447,"Ġobserved":5448,"Ġphotographers":5449,"Ġgroomsmen":5450,"Ġdevil":5451,"Ġtips":5452,"Ġtiara":5453,"Ġgrim":5454,"Ġdefenders":5455,"Ġpirates":5456,"Ġpumps":5457,"Ġcasual":5458,"Ġhuddled":5459,"Ġ13":5460,"Ġcroquet":5461,"Ġcrocodile":5462,"Ġpairs":5463,"Ġsheets":5464,"Ġalleyway":5465,"Ġconcerned":5466,"Ġwindsurfs":5467,"Ġaims":5468,"Ġmoment":5469,"Ġruss":5470,"Ġstools":5471,"Ġconverse":5472,"Ġconversing":5473,"Ġengine":5474,"Ġkeeps":5475,"Ġreturn":5476,"Ġgaze":5477,"Ġpresents":5478,"asse":5479,"Ġproduct":5480,"Ġproducts":5481,"Ġpedestrian":5482,"Ġdonut":5483,"Ġparachutes":5484,"Ġtrans":5485,"Ġmisses":5486,"Ġminiature":5487,"Ġfatig":5488,"Ġspiky":5489,"Ġinterested":5490,"Ġvault":5491,"Ġmaneuver":5492,"Ġsells":5493,"Ġmassage":5494,"Ġmassive":5495,"Ġshelter":5496,"Ġdepic":5497,"cotch":5498,"Ġscreaming":5499,"Ġcookie":5500,"Ġscratches":5501,"Ġscratching":5502,"Ġsqueezing":5503,"Ġmittens":5504,"Ġhopscotch":5505,"Ġlearning":5506,"Ġinterviews":5507,"Ġwoven":5508,"Ġsundress":5509,"Ġinspecting":5510,"Ġcrystal":5511,"Ġfreshly":5512,"Ġlimousine":5513,"Ġfocus":5514,"Ġtraverses":5515,"Ġadjusting":5516,"Ġwashington":5517,"climbing":5518,"Ġigloo":5519,"Ġavoid":5520,"Ġtethered":5521,"Ġoversized":5522,"Ġpooh":5523,"Ġdyed":5524,"Ġthrew":5525,"Ġmodel":5526,"Ġsunshade":5527,"Ġbatsman":5528,"Ġplush":5529,"Ġsnarling":5530,"Ġdalmatian":5531,"Ġsaxophone":5532,"Ġacrobatic":5533,"Ġabandoned":5534,"Ġinstructor":5535,"Ġbonnet":5536,"Ġsomersault":5537,"Ġneedle":5538,"Ġunfinished":5539,"Ġvictory":5540,"Ġpursued":5541,"Ġmexican":5542,"Ġcolumns":5543,"Ġcongregate":5544,"clad":5545,"Ġgames":5546,"Ġnails":5547,"Ġnude":5548,"Ġangels":5549,"Ġlambs":5550,"Ġrabbit":5551,"Ġperiod":5552,"Ġstrawberry":5553,"Ġmerchandise":5554,"Ġinground":5555,"Ġirish":5556,"Ġalert":5557,"Ġtinkerbell":5558,"Ġwolf":5559,"Ġolymp":5560,"Ġgeyser":5561,"Ġhigher":5562,"Ġlanterns":5563,"Ġlollip":5564,"Ġdowntown":5565,"Ġmodern":5566,"Ġleggings":5567,"Ġreception":5568,"Ġchairlift":5569,"Ġfootprints":5570,"Ġunhappy":5571,"Ġscruffy":5572,"Ġobjects":5573,"Ġconcentr":5574,"Ġsheltie":5575,"Ġplushie":5576,"Ġrefrigerator":5577,"Ġmilkshake":5578,"Ġaccompan":5579,"bin":5580,"bre":5581,"bal":5582,"blo":5583,"bear":5584,"brown":5585,"de":5586,"ecut":5587,"gan":5588,"gles":5589,"hy":5590,"hirt":5591,"hus":5592,"hoop":5593,"kno":5594,"kment":5595,"lim":5596,"lying":5597,"mor":5598,"pro":5599,"run":5600,"shing":5601,"surf":5602,"tan":5603,"tine":5604,"tely":5605,"uitt":5606,"vi":5607,"vine":5608,"wra":5609,"wls":5610,"yro":5611,"yli":5612,"zy":5613,"zer":5614,"zards":5615,"Ġ7":5616,"Ġut":5617,"Ġump":5618,"Ġeth":5619,"Ġkey":5620,"Ġagg":5621,"Ġaco":5622,"Ġaust":5623,"Ġawk":5624,"Ġawards":5625,"Ġastride":5626,"ndred":5627,"ino":5628,"inas":5629,"inste":5630,"aran":5631,"sty":5632,"sted":5633,"stab":5634,"Ġtand":5635,"Ġtide":5636,"artly":5637,"artment":5638,"Ġwre":5639,"Ġwis":5640,"Ġwill":5641,"Ġwere":5642,"Ġwielding":5643,"Ġbree":5644,"Ġbillow":5645,"Ġbern":5646,"Ġsink":5647,"Ġsud":5648,"itors":5649,"res":5650,"Ġple":5651,"Ġpay":5652,"Ġpris":5653,"Ġding":5654,"Ġdas":5655,"Ġdeter":5656,"Ġdumm":5657,"ances":5658,"ankment":5659,"Ġcall":5660,"lets":5661,"legged":5662,"Ġmard":5663,"iser":5664,"ished":5665,"Ġga":5666,"Ġgor":5667,"Ġgho":5668,"Ġgarter":5669,"Ġgift":5670,"Ġdod":5671,"lap":5672,"Ġfile":5673,"Ġfaded":5674,"cky":5675,"alks":5676,"unt":5677,"Ġrises":5678,"Ġmanic":5679,"Ġmanne":5680,"lon":5681,"Ġstr":5682,"Ġstro":5683,"Ġstir":5684,"Ġstates":5685,"Ġstained":5686,"Ġwharf":5687,"Ġwhales":5688,"Ġbodies":5689,"Ġtobo":5690,"rous":5691,"Ġplaces":5692,"Ġjug":5693,"ray":5694,"Ġlie":5695,"onge":5696,"uting":5697,"Ġwhitewater":5698,"Ġshaded":5699,"Ġshapes":5700,"Ġshady":5701,"Ġblacktop":5702,"hire":5703,"high":5704,"Ġstandard":5705,"Ġpeaking":5706,"Ġpeering":5707,"Ġbamb":5708,"Ġnine":5709,"Ġbell":5710,"Ġbelts":5711,"Ġrot":5712,"Ġcoaching":5713,"Ġgrap":5714,"Ġhovers":5715,"Ġhopper":5716,"rib":5717,"Ġlobby":5718,"Ġlouis":5719,"elvet":5720,"Ġsmartly":5721,"Ġfix":5722,"Ġfights":5723,"Ġballpla":5724,"keep":5725,"Ġlittered":5726,"Ġswung":5727,"aining":5728,"Ġoverturned":5729,"Ġeff":5730,"Ġejected":5731,"Ġeinste":5732,"Ġestab":5733,"icles":5734,"Ġlack":5735,"Ġladle":5736,"Ġlecture":5737,"Ġheron":5738,"Ġpoor":5739,"Ġpolit":5740,"Ġpoised":5741,"Ġupwards":5742,"Ġravine":5743,"Ġcarying":5744,"Ġcargo":5745,"Ġgreenish":5746,"Ġbuff":5747,"Ġbuses":5748,"Ġgroucho":5749,"Ġgroups":5750,"rena":5751,"Ġclust":5752,"atee":5753,"Ġnears":5754,"Ġstreaked":5755,"Ġspig":5756,"Ġsponge":5757,"appled":5758,"Ġrecre":5759,"Ġreached":5760,"Ġreeds":5761,"Ġskatepark":5762,"Ġclimbed":5763,"Ġtram":5764,"Ġchat":5765,"Ġchaps":5766,"Ġshots":5767,"Ġshoppers":5768,"Ġtagged":5769,"Ġtabby":5770,"Ġsol":5771,"Ġsour":5772,"lights":5773,"ooling":5774,"ulf":5775,"Ġgoatee":5776,"Ġfauc":5777,"Ġpuff":5778,"Ġdirtbi":5779,"iller":5780,"igator":5781,"Ġheadwra":5782,"rowded":5783,"Ġhip":5784,"Ġbuild":5785,"Ġsunbat":5786,"Ġsunrise":5787,"Ġarrow":5788,"Ġarched":5789,"Ġtea":5790,"Ġuno":5791,"Ġunited":5792,"Ġunison":5793,"Ġunkno":5794,"Ġmaster":5795,"Ġblood":5796,"Ġfacepain":5797,"peach":5798,"Ġskipping":5799,"Ġvending":5800,"Ġvast":5801,"Ġvuitt":5802,"Ġvelvet":5803,"Ġhairstyle":5804,"Ġfences":5805,"orshi":5806,"Ġroadside":5807,"Ġbaring":5808,"Ġbares":5809,"Ġbared":5810,"Ġbarric":5811,"Ġbarely":5812,"Ġbarbed":5813,"Ġbarriers":5814,"Ġraceway":5815,"Ġsiting":5816,"Ġwalker":5817,"Ġwalked":5818,"Ġfeat":5819,"Ġfeild":5820,"Ġfloored":5821,"necked":5822,"Ġcons":5823,"Ġcontemp":5824,"quins":5825,"Ġfrisbees":5826,"Ġdiapers":5827,"rup":5828,"Ġhugged":5829,"Ġhundred":5830,"Ġwipes":5831,"Ġshell":5832,"Ġtheme":5833,"Ġstripy":5834,"Ġchef":5835,"Ġbaton":5836,"Ġliber":5837,"acy":5838,"aces":5839,"acts":5840,"Ġlooked":5841,"Ġbalck":5842,"Ġbalding":5843,"Ġbrings":5844,"tter":5845,"ttish":5846,"Ġsuitcase":5847,"Ġriverbank":5848,"Ġamaz":5849,"Ġameric":5850,"Ġnovel":5851,"Ġsteer":5852,"Ġsteel":5853,"Ġveil":5854,"Ġkickbox":5855,"Ġleave":5856,"Ġcausing":5857,"Ġcabin":5858,"Ġcanon":5859,"Ġcanad":5860,"Ġnightcl":5861,"Ġturban":5862,"Ġturtle":5863,"Ġprom":5864,"Ġprops":5865,"Ġpropped":5866,"Ġbedsp":5867,"Ġpuppet":5868,"Ġenvi":5869,"Ġtrailer":5870,"ustic":5871,"Ġalligator":5872,"Ġwinner":5873,"Ġwinnie":5874,"Ġearly":5875,"Ġtrim":5876,"Ġexecut":5877,"Ġshallows":5878,"Ġsleigh":5879,"Ġcurled":5880,"Ġcurved":5881,"Ġcurious":5882,"Ġcuriously":5883,"Ġcurvy":5884,"Ġmets":5885,"Ġmeter":5886,"Ġcord":5887,"Ġcorrid":5888,"Ġmatt":5889,"scent":5890,"Ġstreamers":5891,"Ġbandaged":5892,"Ġdesks":5893,"Ġcrab":5894,"Ġcramp":5895,"Ġcracked":5896,"Ġorgan":5897,"Ġmarks":5898,"Ġmarches":5899,"Ġjoin":5900,"Ġmeas":5901,"Ġmemor":5902,"Ġpassed":5903,"Ġsquat":5904,"Ġstruggling":5905,"Ġbreast":5906,"Ġpuddles":5907,"Ġraced":5908,"Ġmarkers":5909,"Ġsnu":5910,"Ġdragged":5911,"Ġwaterside":5912,"Ġshowgirl":5913,"Ġpatient":5914,"Ġmasked":5915,"Ġpiled":5916,"Ġpiles":5917,"Ġtriang":5918,"Ġbanks":5919,"Ġbananas":5920,"Ġsweatshirts":5921,"Ġrafters":5922,"Ġalb":5923,"Ġbullfight":5924,"Ġartwork":5925,"Ġflowering":5926,"Ġquilt":5927,"Ġblankets":5928,"armacy":5929,"Ġtouched":5930,"hills":5931,"Ġbalanced":5932,"Ġmonk":5933,"Ġpharmacy":5934,"Ġcuts":5935,"Ġsheepdog":5936,"Ġlaptops":5937,"Ġcontra":5938,"Ġcontents":5939,"Ġfilm":5940,"Ġbeauty":5941,"Ġpraying":5942,"ronts":5943,"Ġwrink":5944,"Ġhappen":5945,"Ġrowers":5946,"Ġchained":5947,"Ġwaterskis":5948,"Ġwaterskies":5949,"Ġburn":5950,"Ġpicket":5951,"Ġpickup":5952,"Ġdirects":5953,"Ġbarefooted":5954,"Ġfloatation":5955,"Ġdisplayed":5956,"Ġclay":5957,"Ġmixing":5958,"Ġacce":5959,"Ġweim":5960,"Ġrounding":5961,"Ġflyer":5962,"Ġauditor":5963,"Ġcollaps":5964,"Ġworkout":5965,"Ġzom":5966,"Ġentering":5967,"Ġenthus":5968,"ensive":5969,"Ġembankment":5970,"Ġterrace":5971,"Ġbegin":5972,"Ġincense":5973,"Ġseems":5974,"Ġcountertop":5975,"Ġimpeach":5976,"Ġserving":5977,"Ġclassroom":5978,"Ġsizes":5979,"Ġsooner":5980,"Ġembraces":5981,"Ġcorners":5982,"Ġparasailer":5983,"Ġthose":5984,"Ġicicle":5985,"Ġwashes":5986,"Ġboulders":5987,"ption":5988,"Ġnotes":5989,"Ġprotesters":5990,"Ġgrinning":5991,"Ġdefends":5992,"Ġcasc":5993,"Ġcash":5994,"Ġcasually":5995,"Ġcasino":5996,"Ġhumming":5997,"Ġsparkling":5998,"Ġflamboy":5999,"Ġ12":6000,"Ġslipper":6001,"Ġportable":6002,"Ġcroc":6003,"Ġcentiped":6004,"Ġgesturing":6005,"Ġhowling":6006,"Ġfigures":6007,"Ġcelebrates":6008,"Ġpinned":6009,"Ġdiners":6010,"Ġpajama":6011,"Ġpillows":6012,"Ġrooftop":6013,"Ġsnowmob":6014,"Ġwildflowers":6015,"Ġteammates":6016,"Ġrollerskates":6017,"Ġslacks":6018,"Ġruins":6019,"Ġpolar":6020,"Ġsparks":6021,"Ġscrub":6022,"Ġconversations":6023,"Ġpretends":6024,"Ġengage":6025,"Ġengulf":6026,"Ġsupplies":6027,"Ġelectrical":6028,"Ġflex":6029,"Ġyoga":6030,"Ġlocal":6031,"Ġreturning":6032,"Ġopponents":6033,"Ġelephants":6034,"Ġadvertisements":6035,"Ġlaunch":6036,"Ġrecording":6037,"Ġrecords":6038,"Ġcompletely":6039,"Ġwigs":6040,"Ġtoilets":6041,"Ġlounging":6042,"Ġhuskies":6043,"Ġproduce":6044,"Ġsnowmobiles":6045,"Ġdonkeys":6046,"Ġhuts":6047,"Ġbrothers":6048,"Ġdumpster":6049,"Ġmissing":6050,"Ġspiked":6051,"handed":6052,"Ġnike":6053,"Ġnips":6054,"Ġrepelling":6055,"Ġelevation":6056,"Ġtuxedo":6057,"Ġactiv":6058,"Ġbrooms":6059,"Ġshrine":6060,"Ġletter":6061,"Ġascends":6062,"Ġchina":6063,"Ġgowns":6064,"Ġadmiring":6065,"Ġdandelions":6066,"striped":6067,"Ġpouncing":6068,"Ġcrate":6069,"Ġpopsicle":6070,"Ġarchway":6071,"Ġexercises":6072,"Ġtwirls":6073,"Ġnavigating":6074,"Ġwristbands":6075,"Ġhammer":6076,"Ġtorn":6077,"Ġregister":6078,"Ġdepartment":6079,"Ġassisting":6080,"Ġassistance":6081,"Ġdemonstrating":6082,"Ġblindfolds":6083,"Ġollies":6084,"Ġlioness":6085,"Ġcutouts":6086,"Ġpiggyback":6087,"Ġsaris":6088,"Ġsundown":6089,"Ġrifle":6090,"Ġrifles":6091,"Ġrushes":6092,"Ġrushing":6093,"Ġlimo":6094,"Ġreceives":6095,"Ġobscured":6096,"Ġbattles":6097,"Ġbattling":6098,"Ġvideotaped":6099,"Ġroute":6100,"Ġroutine":6101,"Ġprize":6102,"Ġprizes":6103,"Ġpresses":6104,"Ġnurses":6105,"Ġmouthed":6106,"Ġspreading":6107,"Ġspreads":6108,"Ġspaniel":6109,"Ġvegetation":6110,"Ġvegetable":6111,"Ġadmires":6112,"ralian":6113,"Ġtilted":6114,"Ġsearching":6115,"Ġinvolving":6116,"Ġflings":6117,"Ġjudge":6118,"Ġcondoms":6119,"Ġseesaw":6120,"Ġscottish":6121,"Ġpurchas":6122,"Ġattractive":6123,"Ġcracker":6124,"Ġhorseshoes":6125,"Ġcrevasse":6126,"Ġcompany":6127,"Ġfleece":6128,"Ġvaulting":6129,"Ġswoops":6130,"Ġsalon":6131,"Ġgigolo":6132,"Ġfrowning":6133,"Ġwhispering":6134,"Ġspiral":6135,"Ġcharging":6136,"Ġtaxi":6137,"Ġsequined":6138,"Ġscrambling":6139,"Ġflooded":6140,"Ġwetsuits":6141,"Ġretreiver":6142,"Ġcompetitive":6143,"Ġcontroller":6144,"Ġtimes":6145,"Ġbrushes":6146,"Ġmesh":6147,"Ġisrael":6148,"Ġstaff":6149,"Ġancient":6150,"Ġcotton":6151,"Ġbluejeans":6152,"Ġunders":6153,"Ġballerinas":6154,"Ġsocializing":6155,"Ġturbans":6156,"Ġwintry":6157,"Ġmechanical":6158,"Ġdramatically":6159,"Ġdirectly":6160,"Ġextravagant":6161,"Ġrussell":6162,"Ġfatigues":6163,"Ġdepicting":6164,"Ġbonnets":6165,"Ġlollipop":6166,"proof":6167,"Ġethnic":6168,"Ġacoustic":6169,"Ġaustralian":6170,"Ġawkward":6171,"Ġbreeze":6172,"Ġbillowing":6173,"Ġbernard":6174,"Ġsuds":6175,"Ġprison":6176,"Ġdummy":6177,"Ġghost":6178,"Ġmanicured":6179,"Ġtoboggan":6180,"Ġbamboo":6181,"keeper":6182,"Ġeinstein":6183,"Ġpolitical":6184,"Ġspigot":6185,"Ġfaucet":6186,"Ġunknown":6187,"Ġvuitton":6188,"Ġbarricade":6189,"Ġliberty":6190,"Ġnightclub":6191,"Ġbedspread":6192,"Ġexecutes":6193,"Ġcorridor":6194,"Ġpatiently":6195,"Ġauditorium":6196,"Ġhummingbird":6197,"Ġflamboyant":6198,"Ġcentipede":6199,"'t":6200,"ah":6201,"acing":6202,"aging":6203,"bu":6204,"bee":6205,"bie":6206,"bust":6207,"bster":6208,"cd":6209,"cart":6210,"crack":6211,"cast":6212,"cility":6213,"crowded":6214,"ef":6215,"eers":6216,"fro":6217,"fall":6218,"fts":6219,"fting":6220,"gear":6221,"grown":6222,"gway":6223,"gled":6224,"gund":6225,"giz":6226,"gical":6227,"ht":6228,"hor":6229,"hats":6230,"iing":6231,"ights":6232,"kart":6233,"mple":6234,"mined":6235,"mely":6236,"nch":6237,"nut":6238,"ngh":6239,"nna":6240,"oy":6241,"ock":6242,"ody":6243,"obile":6244,"olate":6245,"pants":6246,"pod":6247,"sized":6248,"tr":6249,"tin":6250,"tte":6251,"tured":6252,"uage":6253,"vor":6254,"vil":6255,"wer":6256,"wom":6257,"wled":6258,"wire":6259,"wise":6260,"yal":6261,"zily":6262,"Ġ-":6263,"Ġ9":6264,"Ġx":6265,"Ġur":6266,"Ġver":6267,"Ġign":6268,"Ġrena":6269,"Ġax":6270,"Ġais":6271,"Ġaff":6272,"Ġamp":6273,"Ġallow":6274,"Ġastro":6275,"ari":6276,"arn":6277,"arium":6278,"sts":6279,"stack":6280,"storm":6281,"stance":6282,"Ġtear":6283,"Ġtired":6284,"Ġtip":6285,"arters":6286,"Ġwoo":6287,"Ġwool":6288,"Ġware":6289,"Ġwife":6290,"Ġworshi":6291,"Ġbum":6292,"hem":6293,"hett":6294,"heater":6295,"Ġou":6296,"Ġore":6297,"Ġour":6298,"Ġoars":6299,"Ġowl":6300,"Ġsack":6301,"Ġsill":6302,"Ġsig":6303,"Ġsorts":6304,"Ġsveral":6305,"Ġsym":6306,"Ġink":6307,"Ġinform":6308,"ith":6309,"itz":6310,"ities":6311,"itheater":6312,"Ġther":6313,"Ġpal":6314,"Ġpear":6315,"Ġplow":6316,"Ġpins":6317,"Ġpane":6318,"Ġpride":6319,"Ġdam":6320,"Ġdumb":6321,"Ġdug":6322,"Ġdav":6323,"erce":6324,"anke":6325,"anse":6326,"rot":6327,"Ġcel":6328,"Ġciv":6329,"Ġcert":6330,"Ġcyli":6331,"Ġcrib":6332,"Ġcooling":6333,"lent":6334,"leap":6335,"Ġmr":6336,"Ġmad":6337,"Ġmul":6338,"Ġmeat":6339,"Ġmime":6340,"Ġmitten":6341,"Ġmambo":6342,"Ġmcd":6343,"Ġgon":6344,"Ġgap":6345,"Ġgates":6346,"Ġgrin":6347,"Ġgyro":6348,"Ġdove":6349,"Ġdone":6350,"Ġdodge":6351,"Ġdome":6352,"Ġonward":6353,"lander":6354,"lamp":6355,"lama":6356,"Ġfre":6357,"Ġfer":6358,"Ġfill":6359,"Ġfries":6360,"Ġfinished":6361,"Ġhom":6362,"Ġhide":6363,"irie":6364,"atch":6365,"atus":6366,"alia":6367,"Ġdoghouse":6368,"Ġrad":6369,"Ġrund":6370,"Ġrise":6371,"Ġrising":6372,"Ġstate":6373,"Ġstee":6374,"Ġstony":6375,"Ġstacks":6376,"Ġstride":6377,"enna":6378,"ennel":6379,"enger":6380,"enact":6381,"Ġwhit":6382,"Ġwhack":6383,"omobile":6384,"Ġbout":6385,"eta":6386,"Ġtopped":6387,"Ġtoast":6388,"Ġplains":6389,"andex":6390,"wns":6391,"ora":6392,"ord":6393,"orugh":6394,"Ġjunk":6395,"Ġthorugh":6396,"rase":6397,"racial":6398,"Ġlang":6399,"Ġllama":6400,"Ġyanke":6401,"edience":6402,"onal":6403,"chie":6404,"chund":6405,"chos":6406,"Ġshut":6407,"Ġshred":6408,"Ġshack":6409,"Ġshine":6410,"Ġshipping":6411,"umin":6412,"Ġblazing":6413,"ounts":6414,"ghan":6415,"itti":6416,"itter":6417,"irts":6418,"Ġpebble":6419,"Ġpebbles":6420,"Ġbadge":6421,"Ġner":6422,"Ġnon":6423,"Ġname":6424,"Ġnuzz":6425,"Ġchili":6426,"Ġredbull":6427,"Ġyoungsters":6428,"Ġany":6429,"Ġbeating":6430,"Ġbeca":6431,"Ġrom":6432,"Ġrover":6433,"Ġroses":6434,"Ġrods":6435,"Ġroyal":6436,"Ġcock":6437,"Ġcots":6438,"Ġcopper":6439,"Ġcolander":6440,"imate":6441,"iment":6442,"Ġgraf":6443,"Ġgrasp":6444,"Ġgrazes":6445,"Ġhopes":6446,"Ġholly":6447,"Ġhousing":6448,"Ġblues":6449,"right":6450,"Ġload":6451,"Ġlodge":6452,"Ġlocking":6453,"Ġlocked":6454,"Ġlolly":6455,"Ġloaded":6456,"Ġlobster":6457,"Ġlongh":6458,"Ġsmell":6459,"bol":6460,"bott":6461,"boats":6462,"Ġbiplane":6463,"Ġdogsled":6464,"Ġgrasses":6465,"Ġskills":6466,"Ġult":6467,"Ġfiery":6468,"Ġfixing":6469,"Ġfierce":6470,"Ġdownward":6471,"Ġmop":6472,"Ġmos":6473,"Ġmock":6474,"Ġmoped":6475,"Ġmowed":6476,"kebox":6477,"velo":6478,"seiling":6479,"Ġswirl":6480,"Ġswarm":6481,"Ġovergrown":6482,"Ġever":6483,"Ġeast":6484,"Ġegre":6485,"Ġperspe":6486,"Ġpersons":6487,"Ġpersonnel":6488,"Ġloop":6489,"Ġloose":6490,"Ġlaw":6491,"Ġlate":6492,"Ġlaps":6493,"Ġlaund":6494,"Ġlago":6495,"Ġladen":6496,"Ġlemon":6497,"Ġhero":6498,"Ġheard":6499,"Ġhenna":6500,"Ġpoem":6501,"Ġupright":6502,"Ġraging":6503,"Ġragged":6504,"Ġrailed":6505,"Ġkennel":6506,"ashes":6507,"asion":6508,"Ġbackb":6509,"Ġbacked":6510,"Ġbackgroud":6511,"Ġrocker":6512,"Ġcarves":6513,"Ġcarved":6514,"Ġcarous":6515,"Ġbystand":6516,"Ġbud":6517,"Ġbust":6518,"Ġbuying":6519,"Ġherds":6520,"rence":6521,"Ġcli":6522,"Ġspin":6523,"Ġspel":6524,"Ġspee":6525,"Ġspag":6526,"Ġspell":6527,"Ġspilled":6528,"Ġmenu":6529,"Ġmenus":6530,"Ġbeachgo":6531,"aping":6532,"ngth":6533,"Ġrele":6534,"Ġreco":6535,"Ġrevie":6536,"Ġreind":6537,"Ġreacts":6538,"Ġreenact":6539,"Ġdresser":6540,"inky":6541,"oodle":6542,"Ġotherwise":6543,"Ġchats":6544,"Ġcamper":6545,"Ġshocked":6546,"Ġshouting":6547,"Ġoffstage":6548,"Ġsox":6549,"Ġwaking":6550,"Ġwaste":6551,"Ġmountaineers":6552,"lip":6553,"Ġgod":6554,"Ġgoth":6555,"Ġfacility":6556,"Ġfavor":6557,"ppling":6558,"ppery":6559,"Ġsepar":6560,"Ġsegway":6561,"igan":6562,"Ġheadlights":6563,"Ġsandal":6564,"Ġsandbox":6565,"Ġclosing":6566,"teen":6567,"Ġtext":6568,"Ġtemple":6569,"Ġfootbr":6570,"Ġfoothills":6571,"dynam":6572,"Ġblown":6573,"Ġtangled":6574,"shot":6575,"Ġscuff":6576,"Ġscouts":6577,"Ġbases":6578,"Ġmuff":6579,"Ġvw":6580,"Ġvamp":6581,"Ġvint":6582,"Ġmotorboat":6583,"Ġarmbands":6584,"Ġdrill":6585,"Ġital":6586,"Ġthatched":6587,"Ġbasketballs":6588,"Ġiron":6589,"Ġipod":6590,"ggers":6591,"Ġbarb":6592,"Ġbarber":6593,"Ġgreyish":6594,"Ġleaped":6595,"Ġleapfro":6596,"Ġobedience":6597,"Ġbasement":6598,"Ġfeature":6599,"Ġgull":6600,"Ġguided":6601,"Ġconfe":6602,"Ġdip":6603,"Ġdiv":6604,"Ġcomic":6605,"aker":6606,"Ġhus":6607,"Ġadv":6608,"Ġdane":6609,"Ġhighland":6610,"Ġtreks":6611,"Ġwiping":6612,"Ġsheper":6613,"Ġshelf":6614,"Ġstrikes":6615,"Ġcheered":6616,"Ġcheese":6617,"Ġdarker":6618,"Ġhorn":6619,"Ġflu":6620,"Ġflung":6621,"Ġbathe":6622,"Ġparrot":6623,"Ġlivest":6624,"Ġlizards":6625,"Ġcolliding":6626,"Ġbrand":6627,"tters":6628,"tties":6629,"Ġdrivers":6630,"Ġflailing":6631,"Ġflash":6632,"Ġages":6633,"Ġamish":6634,"Ġamused":6635,"Ġcaptured":6636,"dding":6637,"ddling":6638,"Ġkicker":6639,"Ġwheat":6640,"Ġdeb":6641,"Ġdec":6642,"Ġdevelo":6643,"Ġopened":6644,"coaster":6645,"Ġfighter":6646,"Ġfighters":6647,"Ġsetter":6648,"Ġboot":6649,"Ġcliffside":6650,"Ġstock":6651,"Ġbodyboard":6652,"Ġcav":6653,"Ġlighter":6654,"Ġlighthouse":6655,"Ġrestara":6656,"Ġfires":6657,"Ġfiremen":6658,"Ġshake":6659,"Ġturkey":6660,"ager":6661,"Ġbeds":6662,"Ġwheelers":6663,"ista":6664,"wered":6665,"Ġprevent":6666,"Ġenfor":6667,"Ġflooring":6668,"ustr":6669,"stically":6670,"Ġtaller":6671,"Ġwinking":6672,"Ġwinning":6673,"Ġwinks":6674,"Ġdaytime":6675,"Ġearpiece":6676,"Ġsmock":6677,"Ġexiting":6678,"Ġexha":6679,"Ġgoalkeeper":6680,"Ġrailway":6681,"zzled":6682,"Ġstarbu":6683,"Ġleaned":6684,"Ġmatador":6685,"Ġlanded":6686,"Ġstreaming":6687,"Ġsipping":6688,"Ġsippy":6689,"Ġbands":6690,"Ġbandage":6691,"Ġspeckled":6692,"Ġdisgu":6693,"Ġcarton":6694,"Ġretri":6695,"Ġretaining":6696,"Ġdesolate":6697,"Ġornament":6698,"Ġcompetitor":6699,"Ġsucks":6700,"Ġsuited":6701,"Ġcycle":6702,"Ġmarina":6703,"Ġmarried":6704,"Ġjoust":6705,"Ġmeand":6706,"Ġharvest":6707,"Ġspotters":6708,"Ġkissed":6709,"ivan":6710,"Ġsprings":6711,"Ġapplies":6712,"Ġapplying":6713,"stern":6714,"Ġsubstance":6715,"Ġpasserby":6716,"Ġhurrying":6717,"Ġsquares":6718,"Ġhooking":6719,"Ġviews":6720,"Ġbreat":6721,"Ġsunsets":6722,"Ġslou":6723,"Ġsloped":6724,"Ġsloping":6725,"Ġnecked":6726,"Ġsnork":6727,"Ġpaperback":6728,"Ġdraw":6729,"Ġdrawn":6730,"Ġdraft":6731,"Ġdraped":6732,"Ġdrapped":6733,"Ġstraining":6734,"Ġstrapless":6735,"Ġbunk":6736,"Ġwatersp":6737,"Ġtackler":6738,"Ġshowering":6739,"Ġpatrick":6740,"Ġmusher":6741,"Ġmuslim":6742,"Ġretrievers":6743,"Ġbmw":6744,"Ġalco":6745,"Ġcrew":6746,"Ġcreated":6747,"Ġpaddled":6748,"Ġoppose":6749,"type":6750,"Ġringing":6751,"Ġquarters":6752,"Ġtunic":6753,"Ġcrouch":6754,"Ġbounced":6755,"Ġtattered":6756,"Ġfully":6757,"Ġmicrophones":6758,"Ġtugs":6759,"Ġafro":6760,"Ġafghan":6761,"Ġnets":6762,"Ġindia":6763,"Ġprotects":6764,"Ġphones":6765,"Ġphrase":6766,"Ġcontin":6767,"Ġwindy":6768,"Ġfilmed":6769,"Ġhalo":6770,"Ġforefront":6771,"Ġafricans":6772,"Ġprairie":6773,"ronment":6774,"Ġlicked":6775,"chested":6776,"Ġschoolgirl":6777,"Ġpackages":6778,"Ġroughly":6779,"bery":6780,"Ġwaitress":6781,"Ġburlap":6782,"Ġburgund":6783,"Ġintense":6784,"Ġdunk":6785,"Ġcardigan":6786,"Ġrodent":6787,"Ġtugboat":6788,"Ġclap":6789,"Ġclaps":6790,"Ġclause":6791,"Ġcricketer":6792,"Ġrapid":6793,"Ġmix":6794,"Ġmixed":6795,"Ġstrolls":6796,"Ġaccent":6797,"Ġweird":6798,"Ġwestern":6799,"Ġtower":6800,"Ġlabs":6801,"Ġlabeled":6802,"Ġ25":6803,"Ġatvs":6804,"Ġdecoration":6805,"Ġdecorations":6806,"skating":6807,"skiing":6808,"Ġfangs":6809,"Ġrubble":6810,"Ġboundary":6811,"Ġexpo":6812,"Ġexpanse":6813,"Ġsafely":6814,"Ġsafari":6815,"Ġfingerpain":6816,"osaur":6817,"Ġzo":6818,"Ġzara":6819,"Ġentang":6820,"Ġshadowed":6821,"Ġtravelling":6822,"Ġexting":6823,"Ġchops":6824,"Ġseem":6825,"Ġimages":6826,"Ġparasurf":6827,"Ġrollerbladers":6828,"Ġwrap":6829,"Ġwraps":6830,"Ġmounds":6831,"Ġchested":6832,"Ġleafs":6833,"Ġserves":6834,"Ġserved":6835,"Ġpedal":6836,"Ġpedals":6837,"Ġpedaling":6838,"Ġjukebox":6839,"Ġpigeon":6840,"Ġpeaceful":6841,"Ġcampground":6842,"Ġwaring":6843,"Ġpunch":6844,"Ġiced":6845,"Ġwashed":6846,"Ġdroo":6847,"Ġdescent":6848,"Ġheadscarfs":6849,"otic":6850,"Ġcooks":6851,"Ġdevices":6852,"Ġdiscuss":6853,"Ġprotesting":6854,"Ġgroceries":6855,"Ġ52":6856,"Ġintertube":6857,"Ġinterracial":6858,"Ġgrilling":6859,"Ġpeek":6860,"Ġscared":6861,"Ġdefensive":6862,"view":6863,"Ġmessily":6864,"Ġmessenger":6865,"Ġhummer":6866,"Ġvarying":6867,"Ġbarrels":6868,"Ġ10":6869,"Ġfarmers":6870,"Ġchurning":6871,"Ġautomobile":6872,"Ġpanel":6873,"Ġpanting":6874,"Ġfoamy":6875,"Ġmagic":6876,"Ġvisor":6877,"Ġtiles":6878,"Ġdinosaur":6879,"Ġtourist":6880,"Ġexamines":6881,"Ġchalkboard":6882,"Ġshoeless":6883,"Ġrollerskater":6884,"Ġcollection":6885,"Ġcollects":6886,"Ġtubing":6887,"Ġslab":6888,"Ġslam":6889,"Ġpenc":6890,"Ġpengu":6891,"Ġrush":6892,"Ġrugged":6893,"Ġsparse":6894,"Ġscrubby":6895,"Ġengaged":6896,"Ġsupports":6897,"Ġsupporter":6898,"Ġkeeping":6899,"Ġbills":6900,"Ġchewed":6901,"Ġidentically":6902,"Ġcrank":6903,"Ġbushy":6904,"Ġrecorder":6905,"Ġcompleting":6906,"Ġcompletes":6907,"Ġphotographing":6908,"Ġtouchdown":6909,"Ġgrowls":6910,"Ġbullet":6911,"Ġtrade":6912,"Ġsprint":6913,"Ġsprinting":6914,"Ġreflections":6915,"Ġaquarium":6916,"Ġdonkey":6917,"Ġanticip":6918,"Ġantenna":6919,"Ġeveryone":6920,"Ġdragsters":6921,"Ġparachutist":6922,"Ġescape":6923,"Ġmissed":6924,"Ġspikes":6925,"Ġnibbling":6926,"Ġbeverages":6927,"Ġcobbled":6928,"Ġelevated":6929,"Ġsimilarly":6930,"ably":6931,"Ġcrust":6932,"Ġmuscle":6933,"Ġofficials":6934,"Ġelectronics":6935,"Ġbillboards":6936,"potties":6937,"Ġtickets":6938,"Ġcrumbling":6939,"Ġmelted":6940,"Ġyawns":6941,"Ġsecured":6942,"Ġbookshe":6943,"Ġpassenger":6944,"Ġlabradoodle":6945,"Ġextremely":6946,"guards":6947,"kerchie":6948,"suited":6949,"Ġwrists":6950,"Ġtorso":6951,"Ġyorkie":6952,"Ġoverhanging":6953,"Ġlassie":6954,"Ġhearts":6955,"Ġregion":6956,"Ġconfused":6957,"Ġshelves":6958,"Ġsubmerges":6959,"Ġtussling":6960,"Ġcookies":6961,"Ġsqueeze":6962,"Ġgallops":6963,"Ġdemonstration":6964,"Ġdemonstrates":6965,"Ġlearn":6966,"Ġsoldiers":6967,"Ġfirefighters":6968,"Ġspeaker":6969,"Ġinterviewed":6970,"Ġpriests":6971,"vention":6972,"Ġbrowses":6973,"Ġsari":6974,"Ġinspects":6975,"Ġremote":6976,"Ġremoving":6977,"Ġvideotaping":6978,"Ġshrubbery":6979,"ford":6980,"Ġtether":6981,"Ġsyrup":6982,"Ġdye":6983,"Ġminivan":6984,"Ġfedora":6985,"Ġnursing":6986,"Ġangle":6987,"Ġgrasps":6988,"Ġemitting":6989,"Ġspanish":6990,"Ġsunshine":6991,"Ġpropel":6992,"Ġspecialized":6993,"Ġdalmatians":6994,"Ġsaxophones":6995,"Ġarabian":6996,"Ġelse":6997,"Ġillustr":6998,"Ġoxen":6999,"Ġoxford":7000,"Ġoccupied":7001,"Ġsearch":7002,"Ġsamples":7003,"Ġflinging":7004,"Ġcoastline":7005,"Ġlavender":7006,"Ġblossoms":7007,"Ġblossoming":7008,"Ġpurchase":7009,"Ġnoodles":7010,"Ġskydivers":7011,"Ġattraction":7012,"Ġapparatus":7013,"Ġhorseshoe":7014,"Ġcrevice":7015,"Ġcompanion":7016,"Ġaerodynam":7017,"Ġtoothbrush":7018,"Ġswooping":7019,"floor":7020,"lishment":7021,"person":7022,"Ġabseiling":7023,"Ġawaiting":7024,"Ġsightse":7025,"Ġpenske":7026,"Ġcrests":7027,"Ġmingle":7028,"Ġmingling":7029,"issance":7030,"Ġhunched":7031,"Ġbasset":7032,"Ġeasel":7033,"Ġrappelling":7034,"Ġkimono":7035,"Ġkimonos":7036,"Ġbuddha":7037,"Ġgothic":7038,"Ġcomfort":7039,"Ġtrekking":7040,"Ġparagl":7041,"Ġparaglider":7042,"Ġenergiz":7043,"Ġinvestigate":7044,"Ġcustomer":7045,"sleeved":7046,"ulated":7047,"Ġadoles":7048,"Ġponchos":7049,"Ġprancing":7050,"Ġpistol":7051,"Ġfalcon":7052,"Ġhumping":7053,"Ġnipple":7054,"Ġfrolicking":7055,"Ġsmeared":7056,"Ġclutching":7057,"Ġrecie":7058,"Ġrevealing":7059,"Ġhandicapped":7060,"Ġvacant":7061,"Ġadorned":7062,"Ġencouraging":7063,"Ġornamental":7064,"Ġsquinting":7065,"Ġstraddles":7066,"Ġquietly":7067,"Ġzigzag":7068,"Ġtransit":7069,"Ġolympics":7070,"Ġaccompanied":7071,"bearded":7072,"Ġumpire":7073,"Ġkeyboard":7074,"Ġtandem":7075,"Ġwrecked":7076,"Ġdinghy":7077,"Ġdaschund":7078,"Ġdetermined":7079,"Ġmardi":7080,"Ġgorge":7081,"Ġdodges":7082,"Ġmannequins":7083,"Ġballplayer":7084,"Ġeffort":7085,"Ġestablishment":7086,"Ġcluster":7087,"Ġsolitary":7088,"Ġsource":7089,"Ġsunbathe":7090,"Ġfacepaint":7091,"Ġcontempla":7092,"Ġhundreds":7093,"Ġnovelty":7094,"Ġenvironment":7095,"Ġmattress":7096,"Ġcramped":7097,"Ġmemorial":7098,"Ġcontraption":7099,"Ġwrinkled":7100,"Ġhappening":7101,"Ġaccep":7102,"Ġweimaran":7103,"Ġzombie":7104,"Ġenthusia":7105,"Ġcrocs":7106,"Ġpolaris":7107,"Ġengulfed":7108,"Ġactivity":7109,"Ġvegetables":7110,"Ġpurchasing":7111,"Ġawkwardly":7112,"Ġprisoner":7113,"Ġghostbust":7114,"cracker":7115,"woman":7116,"Ġignoring":7117,"Ġrenaissance":7118,"Ġaisle":7119,"Ġwarehouse":7120,"hetti":7121,"Ġoregon":7122,"Ġsigning":7123,"Ġsymbol":7124,"Ġdamaged":7125,"Ġdumbbell":7126,"Ġcertific":7127,"Ġmcdonal":7128,"Ġradio":7129,"Ġrundown":7130,"Ġlanguage":7131,"Ġnuzzling":7132,"Ġbecause":7133,"Ġhollywood":7134,"Ġultimate":7135,"Ġegret":7136,"Ġperspective":7137,"Ġlaundry":7138,"Ġlagoon":7139,"Ġlemonade":7140,"Ġcarousel":7141,"Ġspeech":7142,"Ġspaghetti":7143,"Ġbeachgoers":7144,"Ġreindeer":7145,"Ġwasteland":7146,"Ġfavorite":7147,"Ġscuffle":7148,"Ġvampire":7149,"Ġvintage":7150,"Ġleapfrog":7151,"Ġconference":7152,"Ġlivestock":7153,"Ġrestaraunt":7154,"Ġexhaust":7155,"Ġburgundy":7156,"Ġfingerpaints":7157,"Ġpenguins":7158,"kerchief":7159,"Ġenergizer":7160,"08":7161,"ail":7162,"aves":7163,"away":7164,"aled":7165,"aign":7166,"aired":7167,"aved":7168,"bl":7169,"boo":7170,"bling":7171,"bather":7172,"base":7173,"bics":7174,"cid":7175,"cif":7176,"cage":7177,"cag":7178,"come":7179,"cument":7180,"cupied":7181,"dan":7182,"dra":7183,"ders":7184,"dappled":7185,"eing":7186,"easter":7187,"evil":7188,"fing":7189,"food":7190,"five":7191,"fashion":7192,"fronts":7193,"flip":7194,"gn":7195,"gas":7196,"gist":7197,"gym":7198,"glider":7199,"hd":7200,"hn":7201,"hu":7202,"ham":7203,"hair":7204,"hadow":7205,"haps":7206,"iy":7207,"ilding":7208,"ike":7209,"ield":7210,"iqu":7211,"lifier":7212,"life":7213,"mi":7214,"mt":7215,"mart":7216,"mark":7217,"mill":7218,"mble":7219,"mans":7220,"mage":7221,"mol":7222,"muff":7223,"mates":7224,"nc":7225,"nment":7226,"nial":7227,"nical":7228,"national":7229,"ok":7230,"ow":7231,"ost":7232,"ople":7233,"our":7234,"ops":7235,"ound":7236,"ough":7237,"ota":7238,"oked":7239,"orous":7240,"pend":7241,"pat":7242,"pak":7243,"pted":7244,"pads":7245,"poms":7246,"paved":7247,"rd":7248,"rat":7249,"riller":7250,"sm":7251,"sy":7252,"shed":7253,"spla":7254,"school":7255,"sung":7256,"saw":7257,"the":7258,"tra":7259,"ters":7260,"tion":7261,"tled":7262,"turf":7263,"tender":7264,"uge":7265,"uish":7266,"ulate":7267,"var":7268,"vro":7269,"vul":7270,"vien":7271,"wall":7272,"wling":7273,"weat":7274,"ware":7275,"weds":7276,"welling":7277,"walks":7278,"watch":7279,"xy":7280,"xes":7281,"ye":7282,"yed":7283,"yers":7284,"yees":7285,"ylon":7286,"zon":7287,"zard":7288,"zance":7289,"zmat":7290,"Ġ:":7291,"Ġer":7292,"Ġid":7293,"Ġking":7294,"Ġves":7295,"Ġelf":7296,"Ġawn":7297,"Ġage":7298,"Ġace":7299,"Ġari":7300,"Ġali":7301,"Ġaig":7302,"Ġavro":7303,"inating":7304,"ared":7305,"arist":7306,"stin":7307,"star":7308,"stor":7309,"stra":7310,"stard":7311,"stion":7312,"step":7313,"stop":7314,"stacks":7315,"story":7316,"Ġtin":7317,"Ġtart":7318,"Ġtend":7319,"Ġtying":7320,"Ġtell":7321,"Ġtambo":7322,"Ġtrous":7323,"Ġwid":7324,"Ġwon":7325,"Ġwel":7326,"Ġwad":7327,"Ġwran":7328,"Ġwest":7329,"Ġwicket":7330,"Ġbis":7331,"Ġbits":7332,"hear":7333,"here":7334,"held":7335,"heve":7336,"Ġot":7337,"Ġoran":7338,"Ġode":7339,"Ġsan":7340,"Ġsen":7341,"Ġsip":7342,"Ġsug":7343,"Ġslice":7344,"Ġsending":7345,"Ġsalm":7346,"Ġsession":7347,"Ġsalt":7348,"Ġsashes":7349,"Ġinver":7350,"itled":7351,"rescent":7352,"Ġpr":7353,"Ġpum":7354,"Ġpam":7355,"Ġpiling":7356,"Ġpong":7357,"Ġproud":7358,"Ġdart":7359,"Ġdre":7360,"Ġdear":7361,"Ġdue":7362,"Ġdel":7363,"Ġdie":7364,"Ġdup":7365,"Ġduff":7366,"Ġdads":7367,"Ġdaring":7368,"Ġdappled":7369,"Ġdwelling":7370,"Ġdared":7371,"eran":7372,"eral":7373,"erves":7374,"ana":7375,"ancing":7376,"anges":7377,"rod":7378,"rote":7379,"rocks":7380,"roading":7381,"ropes":7382,"robed":7383,"Ġcher":7384,"Ġcrow":7385,"Ġcub":7386,"Ġciti":7387,"Ġcbs":7388,"legs":7389,"Ġmp":7390,"Ġmy":7391,"Ġmut":7392,"Ġmate":7393,"Ġmill":7394,"Ġmills":7395,"ishing":7396,"isies":7397,"Ġgn":7398,"Ġgain":7399,"Ġgay":7400,"Ġgran":7401,"Ġgird":7402,"Ġgiv":7403,"Ġgaur":7404,"Ġglee":7405,"Ġdoo":7406,"Ġdough":7407,"Ġdober":7408,"Ġdolly":7409,"Ġdozes":7410,"Ġdocument":7411,"Ġons":7412,"Ġones":7413,"Ġonce":7414,"Ġoncom":7415,"Ġfid":7416,"Ġfame":7417,"Ġfru":7418,"Ġfant":7419,"Ġfring":7420,"Ġferns":7421,"Ġhid":7422,"Ġhack":7423,"Ġhate":7424,"Ġhitter":7425,"irks":7426,"atening":7427,"ately":7428,"alo":7429,"alth":7430,"alike":7431,"Ġdoggy":7432,"unkers":7433,"Ġandy":7434,"Ġrat":7435,"Ġrite":7436,"Ġrum":7437,"Ġrick":7438,"Ġralley":7439,"Ġrimmed":7440,"Ġrumm":7441,"Ġritz":7442,"Ġmanner":7443,"Ġmantle":7444,"lope":7445,"loyees":7446,"Ġsty":7447,"Ġstood":7448,"Ġstiff":7449,"Ġstance":7450,"Ġstruck":7451,"Ġstubby":7452,"Ġstab":7453,"Ġstoops":7454,"Ġstains":7455,"Ġstiped":7456,"Ġstory":7457,"Ġstalks":7458,"ener":7459,"iders":7460,"idge":7461,"idwalk":7462,"omed":7463,"Ġbong":7464,"Ġboating":7465,"Ġbohem":7466,"etic":7467,"Ġton":7468,"Ġtoes":7469,"Ġtote":7470,"Ġtowing":7471,"Ġtoba":7472,"Ġtotter":7473,"alling":7474,"allic":7475,"ssed":7476,"Ġplacid":7477,"andel":7478,"orks":7479,"ories":7480,"orary":7481,"ords":7482,"Ġplaygroud":7483,"Ġjr":7484,"Ġthing":7485,"Ġthriller":7486,"rain":7487,"race":7488,"rails":7489,"Ġlump":7490,"Ġlilly":7491,"Ġyach":7492,"Ġyong":7493,"Ġyarn":7494,"Ġyorks":7495,"itect":7496,"itement":7497,"eding":7498,"ont":7499,"chy":7500,"chure":7501,"chnic":7502,"child":7503,"chnical":7504,"uts":7505,"uters":7506,"utcracker":7507,"utarist":7508,"Ġshit":7509,"Ġsham":7510,"Ġshiner":7511,"Ġshielding":7512,"Ġshorter":7513,"ume":7514,"umed":7515,"Ġblazer":7516,"oung":7517,"redible":7518,"not":7519,"erson":7520,"ersus":7521,"Ġathe":7522,"ittery":7523,"urines":7524,"urated":7525,"gest":7526,"Ġpep":7527,"Ġpeer":7528,"Ġpeir":7529,"Ġpelic":7530,"Ġwaterproof":7531,"Ġbaked":7532,"Ġbaggage":7533,"Ġpeoples":7534,"Ġnam":7535,"Ġnad":7536,"Ġnas":7537,"Ġnort":7538,"Ġnurs":7539,"Ġnylon":7540,"Ġnutcracker":7541,"oos":7542,"Ġchips":7543,"Ġchief":7544,"Ġchicag":7545,"cement":7546,"Ġyoungster":7547,"Ġanime":7548,"Ġbest":7549,"Ġbela":7550,"Ġbeck":7551,"Ġbegs":7552,"Ġbeats":7553,"Ġroo":7554,"Ġrose":7555,"Ġroman":7556,"Ġroping":7557,"Ġroot":7558,"Ġcot":7559,"Ġcoy":7560,"Ġcospla":7561,"iming":7562,"immage":7563,"Ġsnoop":7564,"Ġsnowp":7565,"Ġsnowed":7566,"Ġsnowfield":7567,"Ġsnowstorm":7568,"Ġgraze":7569,"Ġgrappling":7570,"Ġhoes":7571,"Ġhosed":7572,"Ġhods":7573,"iles":7574,"ilies":7575,"ilted":7576,"amic":7577,"americ":7578,"Ġfron":7579,"Ġfrosting":7580,"Ġfrosty":7581,"Ġhissing":7582,"rior":7583,"ript":7584,"Ġloan":7585,"Ġlonel":7586,"Ġlooming":7587,"elp":7588,"Ġsmu":7589,"Ġsmilling":7590,"Ġsmirks":7591,"adies":7592,"bound":7593,"Ġoutwards":7594,"Ġoutrun":7595,"Ġbicy":7596,"Ġgrassland":7597,"Ġskins":7598,"Ġskids":7599,"Ġwalmart":7600,"Ġthrought":7601,"Ġuw":7602,"Ġuggs":7603,"Ġdownwards":7604,"Ġmown":7605,"kept":7606,"kemon":7607,"seat":7608,"semble":7609,"Ġswe":7610,"Ġswam":7611,"Ġswerves":7612,"aint":7613,"Ġgren":7614,"toy":7615,"toise":7616,"touch":7617,"Ġoverall":7618,"Ġoverflow":7619,"Ġovercast":7620,"boards":7621,"Ġegy":7622,"ica":7623,"icular":7624,"Ġlas":7625,"Ġlakes":7626,"Ġlatte":7627,"Ġless":7628,"Ġlets":7629,"Ġlevel":7630,"Ġlength":7631,"Ġpour":7632,"Ġpots":7633,"Ġpoling":7634,"Ġpoured":7635,"Ġpotty":7636,"Ġpouch":7637,"Ġpowered":7638,"Ġpokemon":7639,"Ġrafter":7640,"Ġrays":7641,"Ġkart":7642,"Ġkio":7643,"Ġkaw":7644,"ased":7645,"asaki":7646,"Ġbackless":7647,"Ġbackhand":7648,"Ġbackseat":7649,"Ġrockstar":7650,"Ġcarav":7651,"Ġcarolin":7652,"Ġcarab":7653,"acker":7654,"Ġyell":7655,"Ġyells":7656,"Ġbugg":7657,"Ġbucked":7658,"Ġbuckled":7659,"Ġbuzy":7660,"Ġbuoy":7661,"Ġhers":7662,"Ġclump":7663,"Ġclips":7664,"Ġsombody":7665,"Ġsombre":7666,"Ġspits":7667,"Ġspitting":7668,"Ġspool":7669,"Ġspac":7670,"Ġsparrow":7671,"Ġspandex":7672,"Ġask":7673,"Ġasia":7674,"ghtened":7675,"Ġfork":7676,"Ġforce":7677,"Ġforwards":7678,"ressive":7679,"aph":7680,"Ġmouthing":7681,"Ġmouthguards":7682,"Ġrect":7683,"Ġrepla":7684,"Ġrears":7685,"Ġresp":7686,"Ġdressing":7687,"Ġjumpsuits":7688,"Ġnest":7689,"Ġneat":7690,"Ġnecks":7691,"Ġfoal":7692,"Ġfold":7693,"Ġfound":7694,"rowing":7695,"Ġtrays":7696,"Ġtrapped":7697,"Ġsurgical":7698,"Ġchart":7699,"Ġchris":7700,"Ġchins":7701,"Ġchallen":7702,"Ġchanging":7703,"Ġchanges":7704,"Ġchandel":7705,"Ġtaught":7706,"Ġsole":7707,"Ġsoil":7708,"Ġsoled":7709,"Ġsoup":7710,"Ġsoggy":7711,"Ġwaists":7712,"Ġwavy":7713,"Ġmountaintops":7714,"Ġswimwear":7715,"ulting":7716,"rangement":7717,"Ġhandling":7718,"Ġhandkerchief":7719,"Ġhandheld":7720,"Ġhandrails":7721,"Ġgover":7722,"Ġfaced":7723,"Ġfaith":7724,"ppard":7725,"ppie":7726,"ppies":7727,"ctured":7728,"Ġsideline":7729,"Ġseed":7730,"Ġsection":7731,"Ġseper":7732,"Ġsemi":7733,"Ġsexy":7734,"Ġcatho":7735,"Ġcattle":7736,"Ġcattails":7737,"cerc":7738,"Ġpoolside":7739,"Ġpups":7740,"Ġpudding":7741,"Ġpuzzled":7742,"bye":7743,"Ġtoyota":7744,"Ġheadress":7745,"Ġheadphone":7746,"Ġheadlong":7747,"Ġheadlamp":7748,"Ġsandpit":7749,"Ġhistor":7750,"Ġsunflowers":7751,"Ġsuntan":7752,"Ġsunbather":7753,"Ġcloak":7754,"Ġcloaks":7755,"Ġarri":7756,"Ġarran":7757,"Ġarray":7758,"Ġarrangement":7759,"Ġtex":7760,"Ġteach":7761,"Ġteeter":7762,"Ġtechnical":7763,"Ġholder":7764,"psons":7765,"Ġslur":7766,"Ġslinging":7767,"Ġslender":7768,"Ġslicker":7769,"Ġslices":7770,"Ġslinky":7771,"cings":7772,"Ġunman":7773,"Ġuncrowded":7774,"Ġunpaved":7775,"Ġmast":7776,"Ġhelment":7777,"Ġhilltop":7778,"Ġfours":7779,"Ġbloom":7780,"Ġblouse":7781,"Ġbloody":7782,"Ġpawing":7783,"Ġpails":7784,"Ġtopples":7785,"dles":7786,"Ġswimmies":7787,"Ġtanned":7788,"Ġtantr":7789,"pect":7790,"shroom":7791,"Ġscoop":7792,"Ġscram":7793,"Ġscoring":7794,"Ġcolonial":7795,"Ġmottled":7796,"Ġmule":7797,"Ġmustard":7798,"Ġmushroom":7799,"Ġven":7800,"Ġviz":7801,"Ġveter":7802,"Ġvista":7803,"Ġversus":7804,"hol":7805,"hop":7806,"how":7807,"hose":7808,"hodo":7809,"Ġmidget":7810,"Ġmotorcross":7811,"Ġdrug":7812,"metal":7813,"Ġperches":7814,"Ġpermed":7815,"Ġperhaps":7816,"Ġperpend":7817,"Ġbarack":7818,"eye":7819,"eyed":7820,"Ġsites":7821,"phitheater":7822,"Ġcouches":7823,"Ġwalkers":7824,"Ġgrounded":7825,"Ġfeels":7826,"Ġflop":7827,"Ġflopping":7828,"Ġflorist":7829,"Ġflorescent":7830,"dotted":7831,"nesty":7832,"Ġguides":7833,"Ġcono":7834,"Ġconver":7835,"Ġconvien":7836,"Ġgettin":7837,"Ġdips":7838,"Ġdivers":7839,"Ġcommer":7840,"Ġlongslee":7841,"iffle":7842,"Ġsignals":7843,"Ġadd":7844,"Ġadvent":7845,"Ġadhd":7846,"Ġdanger":7847,"Ġhighschool":7848,"Ġtreats":7849,"Ġtreading":7850,"Ġtreated":7851,"Ġwipe":7852,"Ġwiped":7853,"Ġwiener":7854,"Ġsheppard":7855,"Ġrip":7856,"Ġrice":7857,"Ġripping":7858,"Ġrivers":7859,"Ġdarkly":7860,"Ġdarkness":7861,"Ġhazmat":7862,"Ġreadying":7863,"Ġflippers":7864,"Ġtablet":7865,"undra":7866,"Ġcollision":7867,"Ġflows":7868,"Ġbrilli":7869,"Ġdrifting":7870,"Ġflats":7871,"Ġflashing":7872,"Ġbirdcage":7873,"Ġamount":7874,"Ġamounts":7875,"Ġamphitheater":7876,"Ġamnesty":7877,"antic":7878,"Ġcapri":7879,"Ġcapture":7880,"Ġcapris":7881,"Ġcapped":7882,"Ġnoise":7883,"dded":7884,"Ġsteal":7885,"Ġstepped":7886,"Ġsteady":7887,"Ġsteadies":7888,"Ġvegas":7889,"Ġkickflip":7890,"terned":7891,"Ġoutfitted":7892,"Ġdew":7893,"Ġdemol":7894,"Ġsweats":7895,"Ġsweatsuit":7896,"Ġsweatband":7897,"costum":7898,"coated":7899,"color":7900,"Ġleast":7901,"Ġsetup":7902,"Ġbackpackers":7903,"Ġsurrounds":7904,"Ġstopping":7905,"Ġstocking":7906,"Ġbodysuit":7907,"Ġcauc":7908,"Ġcanned":7909,"Ġcannot":7910,"Ġfishe":7911,"Ġboarded":7912,"Ġlighted":7913,"eeping":7914,"ipers":7915,"Ġfireball":7916,"Ġfirehose":7917,"Ġskyward":7918,"Ġshaft":7919,"Ġshawls":7920,"Ġturf":7921,"Ġpropping":7922,"Ġprocess":7923,"ept":7924,"Ġforests":7925,"wings":7926,"Ġpastry":7927,"uding":7928,"weiser":7929,"Ġgrayhound":7930,"Ġpreser":7931,"Ġprecar":7932,"Ġpregn":7933,"Ġbearer":7934,"Ġsurfboarding":7935,"Ġpointer":7936,"Ġenc":7937,"Ġenough":7938,"Ġsledder":7939,"uges":7940,"maging":7941,"yset":7942,"Ġearmuff":7943,"Ġtrimmed":7944,"Ġpartying":7945,"Ġpartner":7946,"Ġbottled":7947,"Ġexit":7948,"Ġexper":7949,"Ġexotic":7950,"Ġexcerc":7951,"Ġgoaltender":7952,"Ġblower":7953,"Ġsau":7954,"Ġsaw":7955,"Ġsave":7956,"Ġattending":7957,"Ġattaching":7958,"zzy":7959,"zzes":7960,"Ġcurl":7961,"Ġcurling":7962,"Ġcurls":7963,"Ġstorefronts":7964,"Ġbetter":7965,"Ġmetro":7966,"Ġmetallic":7967,"Ġcorral":7968,"Ġoverlooked":7969,"Ġstreamer":7970,"Ġsips":7971,"Ġrollercoaster":7972,"Ġlawnmo":7973,"Ġwintery":7974,"Ġwintertime":7975,"Ġdisco":7976,"Ġdisheve":7977,"Ġcartoon":7978,"Ġretail":7979,"Ġcrag":7980,"Ġcrazy":7981,"Ġcrafts":7982,"Ġcrazily":7983,"Ġworried":7984,"Ġsuck":7985,"Ġcycles":7986,"Ġmarine":7987,"Ġmarque":7988,"Ġjoke":7989,"Ġharmon":7990,"Ġspokes":7991,"Ġsilk":7992,"Ġsubject":7993,"parent":7994,"Ġpassage":7995,"Ġstunning":7996,"Ġsquad":7997,"Ġhoof":7998,"Ġhook":7999,"Ġhooker":8000,"Ġsprawled":8001,"Ġviewing":8002,"Ġdoorbell":8003,"Ġdoorstep":8004,"onsored":8005,"Ġprepared":8006,"Ġraining":8007,"Ġpolicewoman":8008,"itions":8009,"Ġeldery":8010,"Ġstuntman":8011,"Ġscarfs":8012,"Ġlifevest":8013,"Ġdrags":8014,"Ġdraws":8015,"Ġhoodies":8016,"Ġstraddling":8017,"Ġtented":8018,"Ġbowed":8019,"Ġrestaurants":8020,"Ġformed":8021,"Ġpatron":8022,"Ġcleans":8023,"Ġmushing":8024,"Ġrefuse":8025,"Ġrefere":8026,"Ġrefresh":8027,"Ġretrieved":8028,"Ġtried":8029,"Ġtrike":8030,"Ġtrials":8031,"Ġtribal":8032,"Ġbangs":8033,"Ġbanjo":8034,"Ġtermin":8035,"Ġalter":8036,"Ġcreates":8037,"Ġbullhor":8038,"Ġelement":8039,"Ġelection":8040,"Ġeleven":8041,"aneous":8042,"Ġringed":8043,"Ġdancefloor":8044,"Ġstatute":8045,"Ġquilted":8046,"Ġduke":8047,"Ġbarechested":8048,"Ġbouncer":8049,"Ġsportswear":8050,"Ġpaintbrush":8051,"oper":8052,"Ġtuxes":8053,"Ġmonitors":8054,"Ġlogos":8055,"mos":8056,"motion":8057,"Ġhomebase":8058,"Ġgrips":8059,"Ġnetted":8060,"Ġindians":8061,"Ġindesc":8062,"Ġprotester":8063,"Ġphys":8064,"Ġdigger":8065,"Ġknitted":8066,"Ġsleek":8067,"Ġfuneral":8068,"Ġwindmill":8069,"Ġspeedos":8070,"Ġspeedboat":8071,"Ġfilming":8072,"Ġwhiel":8073,"Ġwhips":8074,"Ġwhipping":8075,"Ġpaddlers":8076,"Ġhalves":8077,"Ġforeign":8078,"Ġforearm":8079,"Ġphotography":8080,"Ġfrightened":8081,"Ġfairies":8082,"Ġprayer":8083,"ronized":8084,"Ġgardening":8085,"ristine":8086,"chel":8087,"Ġschoolchild":8088,"Ġpetals":8089,"Ġpeterson":8090,"Ġonlooker":8091,"Ġsniffed":8092,"Ġpackage":8093,"Ġroughhou":8094,"Ġways":8095,"Ġemployees":8096,"Ġstretcher":8097,"Ġheadbands":8098,"Ġtrooper":8099,"strewn":8100,"stream":8101,"Ġbursting":8102,"Ġburrowing":8103,"Ġdirector":8104,"Ġcastles":8105,"Ġtwent":8106,"Ġmotorbiker":8107,"Ġmedit":8108,"Ġmedal":8109,"Ġhalfway":8110,"Ġaccross":8111,"Ġaccess":8112,"Ġweights":8113,"Ġbrook":8114,"Ġbrochure":8115,"Ġtowers":8116,"Ġtowels":8117,"Ġ21":8118,"Ġcollage":8119,"Ġhaystack":8120,"Ġchecker":8121,"Ġfanny":8122,"Ġamuseument":8123,"Ġexpos":8124,"Ġcrawl":8125,"Ġza":8126,"Ġentitled":8127,"Ġgiants":8128,"ensils":8129,"Ġglances":8130,"Ġglancing":8131,"Ġglittery":8132,"sponsored":8133,"Ġdusted":8134,"Ġstudent":8135,"Ġstudies":8136,"Ġstartled":8137,"Ġincredible":8138,"Ġchow":8139,"Ġchoir":8140,"Ġchoke":8141,"Ġguarded":8142,"Ġguardrail":8143,"Ġimp":8144,"Ġimperson":8145,"Ġeyeglasses":8146,"Ġapproached":8147,"Ġrollerblade":8148,"Ġconstructed":8149,"Ġchests":8150,"Ġparticipant":8151,"Ġgarment":8152,"Ġjuggle":8153,"Ġpiglet":8154,"Ġcampaign":8155,"Ġgrove":8156,"Ġstringed":8157,"Ġparasailor":8158,"Ġpunting":8159,"Ġpunctured":8160,"Ġponytails":8161,"angles":8162,"angular":8163,"Ġstumps":8164,"Ġsailboard":8165,"Ġsailboats":8166,"Ġmirrored":8167,"occupied":8168,"Ġicing":8169,"Ġbrass":8170,"Ġbrake":8171,"Ġdescend":8172,"Ġlayer":8173,"Ġnotice":8174,"Ġprincess":8175,"Ġpuckering":8176,"Ġ58":8177,"Ġtipped":8178,"Ġintercept":8179,"Ġinterior":8180,"Ġinternational":8181,"Ġgrand":8182,"Ġfreestyle":8183,"Ġfathers":8184,"Ġpeeing":8185,"Ġgolfers":8186,"Ġdefend":8187,"Ġpatchy":8188,"Ġtightly":8189,"Ġhumans":8190,"Ġlucky":8191,"Ġvaried":8192,"Ġ11":8193,"Ġslippers":8194,"Ġslippery":8195,"Ġportion":8196,"Ġportland":8197,"Ġdale":8198,"Ġdaisies":8199,"Ġcrocks":8200,"Ġcroche":8201,"Ġcrooked":8202,"Ġfarmland":8203,"Ġattacks":8204,"Ġattacked":8205,"Ġauto":8206,"Ġtimeout":8207,"Ġvisitors":8208,"Ġcelebration":8209,"Ġcontainers":8210,"Ġpinwheel":8211,"Ġpinstri":8212,"Ġthinking":8213,"Ġbeams":8214,"Ġexcers":8215,"Ġexcitement":8216,"Ġshowerhead":8217,"Ġinnertub":8218,"Ġwilde":8219,"Ġwildly":8220,"Ġpitchers":8221,"Ġcollecting":8222,"Ġcollected":8223,"Ġswordfight":8224,"Ġstomachs":8225,"hooded":8226,"Ġ84":8227,"Ġaimed":8228,"Ġtubes":8229,"Ġtubular":8230,"Ġpenzance":8231,"Ġfrilly":8232,"Ġrugs":8233,"Ġstudded":8234,"Ġsparsely":8235,"Ġscrimmage":8236,"Ġenglish":8237,"Ġengaging":8238,"Ġsupporting":8239,"Ġsupported":8240,"Ġflea":8241,"Ġflew":8242,"Ġflees":8243,"Ġflexing":8244,"Ġyoug":8245,"Ġbrunettes":8246,"Ġbagpipers":8247,"Ġpedestal":8248,"Ġlaunched":8249,"Ġlauncher":8250,"Ġcomplex":8251,"Ġpresidential":8252,"Ġbathrooms":8253,"Ġdaughters":8254,"Ġgentlemen":8255,"Ġsimpsons":8256,"Ġfarmer":8257,"Ġtook":8258,"Ġfishermen":8259,"Ġcontrols":8260,"Ġbinocular":8261,"Ġweathered":8262,"Ġcalico":8263,"Ġmurals":8264,"Ġdonning":8265,"Ġlinked":8266,"Ġantlers":8267,"Ġantique":8268,"ectionately":8269,"Ġartistic":8270,"Ġescorted":8271,"Ġwands":8272,"Ġsaturated":8273,"Ġsatchel":8274,"Ġdumping":8275,"Ġmallard":8276,"Ġgoogles":8277,"Ġspike":8278,"Ġplaneta":8279,"Ġdrawings":8280,"Ġquarterpipe":8281,"Ġswordsman":8282,"Ġexcitedly":8283,"handled":8284,"Ġpylon":8285,"Ġpyrote":8286,"Ġtoolbox":8287,"Ġnipping":8288,"Ġattentive":8289,"Ġattentively":8290,"Ġincludes":8291,"Ġcruise":8292,"Ġcruiser":8293,"Ġcrucif":8294,"Ġfashionably":8295,"Ġlimbs":8296,"Ġbadges":8297,"Ġbicycling":8298,"Ġbicyclers":8299,"Ġheavyset":8300,"Ġheaddresses":8301,"Ġwindowsill":8302,"Ġworkshop":8303,"Ġcannonball":8304,"potty":8305,"point":8306,"Ġcrates":8307,"Ġmelts":8308,"Ġnicely":8309,"Ġpossible":8310,"Ġpossib":8311,"Ġarchitect":8312,"Ġdangles":8313,"Ġfurnace":8314,"Ġyouths":8315,"Ġbulldogs":8316,"Ġnavigate":8317,"fives":8318,"Ġwristwatch":8319,"Ġbumps":8320,"Ġgoods":8321,"Ġgoodbye":8322,"Ġtortoise":8323,"Ġregalia":8324,"Ġmustached":8325,"Ġconfronts":8326,"Ġcommuters":8327,"Ġsheltered":8328,"Ġmarshy":8329,"Ġexploring":8330,"Ġsqueezes":8331,"Ġcobblestones":8332,"Ġcharacter":8333,"painted":8334,"stem":8335,"Ġfinal":8336,"Ġfinley":8337,"Ġoutcrop":8338,"Ġlearns":8339,"Ġpopulated":8340,"Ġknow":8341,"Ġknocks":8342,"Ġknotted":8343,"Ġknocked":8344,"Ġtwisted":8345,"Ġinterviewing":8346,"ivering":8347,"Ġwound":8348,"Ġbrowse":8349,"rette":8350,"Ġfists":8351,"Ġreceive":8352,"Ġreceiving":8353,"Ġremoves":8354,"Ġfocuses":8355,"Ġtraverse":8356,"Ġtraversing":8357,"Ġobscuring":8358,"Ġspouts":8359,"Ġdrainage":8360,"Ġvideotapes":8361,"Ġdachshunds":8362,"Ġigno":8363,"Ġavoiding":8364,"Ġsynch":8365,"Ġsystem":8366,"Ġminimal":8367,"Ġmaintain":8368,"Ġgenetic":8369,"Ġgnaws":8370,"Ġfedex":8371,"Ġthreatening":8372,"Ġangry":8373,"Ġgrasping":8374,"Ġmoutain":8375,"Ġgreets":8376,"Ġgreeting":8377,"Ġpropelled":8378,"Ġplugging":8379,"Ġsnarls":8380,"Ġsnapping":8381,"Ġeyebrow":8382,"Ġbracelets":8383,"Ġkeeper":8384,"Ġsuperv":8385,"Ġacrobatics":8386,"Ġskyscrapers":8387,"Ġelbow":8388,"Ġillumin":8389,"Ġabandon":8390,"Ġtilts":8391,"Ġoccasion":8392,"Ġsamsung":8393,"Ġinvolved":8394,"Ġbonfire":8395,"Ġjudges":8396,"Ġconditions":8397,"Ġcoasting":8398,"Ġmoonwalk":8399,"Ġlavish":8400,"Ġunfur":8401,"Ġvictorian":8402,"Ġpursuing":8403,"Ġnoteboo":8404,"Ġskydiver":8405,"Ġskydiving":8406,"Ġmexico":8407,"Ġapparel":8408,"Ġpiercings":8409,"Ġcolumned":8410,"Ġnewlyweds":8411,"Ġaerobat":8412,"Ġaerobics":8413,"Ġvaults":8414,"Ġpossessions":8415,"Ġlunchbox":8416,"flops":8417,"zaga":8418,"Ġqueen":8419,"Ġquestion":8420,"Ġawait":8421,"Ġtaping":8422,"Ġoddly":8423,"Ġsalvar":8424,"Ġpensive":8425,"Ġhunter":8426,"Ġrappels":8427,"Ġbuddist":8428,"Ġspirit":8429,"Ġreclines":8430,"Ġreclining":8431,"Ġrecliner":8432,"Ġsequins":8433,"Ġcomforting":8434,"Ġenergy":8435,"Ġpilot":8436,"Ġpilots":8437,"Ġpiloting":8438,"Ġdesigns":8439,"Ġdesigned":8440,"Ġcontrolling":8441,"Ġinvestigates":8442,"Ġcustomers":8443,"Ġtumbles":8444,"Ġtumbleweed":8445,"Ġsinking":8446,"Ġsinks":8447,"Ġprances":8448,"Ġpiste":8449,"Ġmounted":8450,"Ġmountian":8451,"Ġglowing":8452,"Ġfalse":8453,"Ġfrolicks":8454,"Ġfinds":8455,"Ġpockets":8456,"Ġclutches":8457,"Ġhandicap":8458,"Ġvacation":8459,"Ġconfrontation":8460,"Ġornaments":8461,"Ġsquints":8462,"Ġtatoos":8463,"Ġtatooed":8464,"Ġprotectors":8465,"Ġtwigs":8466,"Ġaccents":8467,"Ġaccident":8468,"Ġweaves":8469,"Ġweaving":8470,"Ġwebsite":8471,"Ġbroadly":8472,"Ġbroadway":8473,"Ġ281":8474,"Ġgrimaces":8475,"Ġgrimacing":8476,"Ġgazebo":8477,"Ġdonuts":8478,"Ġtransparent":8479,"Ġolympic":8480,"Ġconcentration":8481,"Ġconcentrates":8482,"block":8483,"surfing":8484,"Ġutensils":8485,"Ġaggressive":8486,"Ġgauges":8487,"Ġstrong":8488,"Ġstirs":8489,"Ġbellbott":8490,"Ġrotweiler":8491,"Ġgrapple":8492,"Ġgraphic":8493,"Ġladles":8494,"Ġpoorly":8495,"Ġbuffalo":8496,"Ġrecreation":8497,"Ġrecreational":8498,"Ġpuffs":8499,"Ġdirtbikers":8500,"Ġheadwrap":8501,"Ġheadwraps":8502,"Ġfeaturing":8503,"Ġfeatures":8504,"Ġconsumed":8505,"Ġamazing":8506,"Ġamerica":8507,"Ġamericans":8508,"Ġkickboxing":8509,"Ġcanada":8510,"Ġcanadian":8511,"Ġmeasured":8512,"Ġbreasts":8513,"Ġsnuggles":8514,"Ġsnuggling":8515,"Ġshowgirls":8516,"Ġtriangle":8517,"Ġtriangular":8518,"Ġalbum":8519,"Ġalbert":8520,"Ġbullfighter":8521,"Ġcascading":8522,"Ġcascades":8523,"Ġsnowmobiling":8524,"Ġsnowmobiler":8525,"Ġscrubland":8526,"Ġscrubbing":8527,"Ġflexible":8528,"Ġisraeli":8529,"Ġstaffords":8530,"Ġunderside":8531,"Ġundershirt":8532,"Ġurinating":8533,"Ġaxe":8534,"Ġaffectionately":8535,"Ġamplifier":8536,"Ġastroturf":8537,"Ġtears":8538,"Ġinformation":8539,"Ġthermos":8540,"Ġpalying":8541,"Ġpearls":8542,"Ġpaneled":8543,"Ġdavid":8544,"Ġcello":8545,"Ġcivil":8546,"Ġcylinder":8547,"Ġmadly":8548,"Ġmulch":8549,"Ġgonzaga":8550,"Ġdodgeball":8551,"Ġfreak":8552,"Ġferris":8553,"Ġhomes":8554,"Ġsteered":8555,"Ġyankee":8556,"Ġshutters":8557,"Ġnerf":8558,"Ġcockpit":8559,"Ġgrafitti":8560,"Ġlonghaired":8561,"Ġmosque":8562,"Ġevergreen":8563,"Ġeastpak":8564,"Ġbackbends":8565,"Ġbystanders":8566,"Ġbudweiser":8567,"Ġclipped":8568,"Ġspelunkers":8569,"Ġreleased":8570,"Ġrecoils":8571,"Ġreviewing":8572,"Ġreenactment":8573,"Ġseparate":8574,"Ġtexting":8575,"Ġfootbridge":8576,"Ġmuffs":8577,"Ġitaly":8578,"Ġdivided":8579,"Ġhusks":8580,"Ġsheperd":8581,"Ġfluore":8582,"Ġdebris":8583,"Ġenforcement":8584,"Ġstarbucks":8585,"Ġdisguises":8586,"Ġjousting":8587,"Ġmeandering":8588,"Ġharvested":8589,"Ġbreathing":8590,"Ġslouching":8591,"Ġsnorkel":8592,"Ġalcohol":8593,"Ġcontinue":8594,"Ġschoolgirls":8595,"Ġrapidly":8596,"Ġaccented":8597,"Ġexposing":8598,"Ġzooming":8599,"Ġentangled":8600,"Ġextinguish":8601,"Ġparasurfer":8602,"Ġdrooling":8603,"Ġ104":8604,"Ġautomobiles":8605,"Ġpencil":8606,"Ġbookshelf":8607,"Ġillustration":8608,"Ġaerodynamic":8609,"Ġsightseeing":8610,"Ġadolescent":8611,"Ġrecieving":8612,"Ġgorgeous":8613,"Ġcontemplates":8614,"Ġaccepts":8615,"Ġweimaraner":8616,"Ġenthusiastically":8617,"Ġghostbusters":8618,"Ġcertificates":8619,"Ġmcdonalds":8620,"blue":8621,"dancer":8622,"eastern":8623,"fashioned":8624,"vulcan":8625,"weather":8626,"zona":8627,"Ġvessel":8628,"Ġawnings":8629,"Ġarizona":8630,"Ġavrovulcan":8631,"Ġtartan":8632,"Ġtambourines":8633,"Ġtrousers":8634,"Ġwaders":8635,"Ġodeon":8636,"Ġsenior":8637,"Ġsuggest":8638,"Ġsalmon":8639,"Ġinverted":8640,"Ġpuma":8641,"Ġpamph":8642,"Ġdiego":8643,"Ġduffel":8644,"Ġdaredevil":8645,"Ġcherry":8646,"Ġgirder":8647,"Ġgiven":8648,"Ġgaurd":8649,"Ġdoughnut":8650,"Ġdobermans":8651,"Ġoncoming":8652,"Ġfringe":8653,"Ġhidden":8654,"Ġrummaging":8655,"Ġrickety":8656,"Ġstabs":8657,"Ġbongo":8658,"Ġyorkshire":8659,"chnics":8660,"Ġshamrocks":8661,"Ġpelicans":8662,"Ġnadal":8663,"Ġnascar":8664,"Ġnorth":8665,"Ġnursery":8666,"Ġchicago":8667,"Ġsnoopy":8668,"Ġlonely":8669,"Ġkiosk":8670,"Ġkawasaki":8671,"Ġcaravan":8672,"Ġcarolina":8673,"Ġcarabiner":8674,"Ġsombrero":8675,"Ġrespond":8676,"Ġchallenge":8677,"Ġchandelier":8678,"Ġcatholic":8679,"Ġhistoric":8680,"Ġsunbathers":8681,"Ġunmanned":8682,"Ġtantrum":8683,"Ġscramble":8684,"Ġveteran":8685,"Ġperpendicular":8686,"Ġcommercial":8687,"Ġlongsleeve":8688,"Ġdangerous":8689,"Ġbrilliant":8690,"Ġdemolished":8691,"costumed":8692,"Ġprecariously":8693,"Ġpregnant":8694,"Ġearmuffs":8695,"Ġlawnmower":8696,"Ġdisheveled":8697,"Ġmarquee":8698,"Ġharmonica":8699,"Ġpatrons":8700,"Ġreferees":8701,"Ġrefreshment":8702,"Ġterminal":8703,"Ġbullhorn":8704,"Ġindescript":8705,"Ġschoolchildren":8706,"Ġroughhousing":8707,"Ġaccessories":8708,"Ġparasailors":8709,"Ġpinstripe":8710,"Ġinnertubes":8711,"Ġpyrotechnics":8712,"Ġpossibly":8713,"Ġarchitectural":8714,"Ġsynchronized":8715,"Ġilluminated":8716,"Ġnotebook":8717,"Ġbellbottoms":8718,"Ġstaffordshire":8719}