#version: 0.2
Ġ a
n d
i n
a r
s t
Ġ t
ar t
e nd
st art
Ġ <
Ġ .
in g
Ġ w
Ġ b
h e
Ġ o
Ġ s
Ġ in
i t
Ġt he
r e
Ġ p
Ġ d
e r
a n
r o
Ġ c
l e
Ġ m
i s
Ġ g
Ġd o
Ġo n
l a
Ġ f
Ġ h
c k
i r
a t
a l
Ġdo g
Ġ is
u n
Ġa nd
Ġ r
Ġw it
Ġwit h
Ġo f
Ġm an
l o
l d
Ġ st
e n
Ġw h
i d
e s
o m
Ġb o
e t
w o
Ġt o
al l
Ġt wo
ro u
s s
Ġp la
e ar
a nd
w n
o r
Ġpla y
Ġ j
Ġt h
r a
Ġbo y
ir l
Ġ l
Ġ y
Ġg irl
it e
e d
Ġw om
he r
o n
c h
u t
Ġwh ite
Ġs h
Ġa re
u m
Ġb la
Ġbla ck
o un
Ġw at
re d
g h
n o
h i
p le
Ġr un
Ġwom an
er s
Ġa t
it t
Ġ ,
Ġw ear
u r
Ġst and
k ing
ir t
g e
Ġwear ing
Ġp e
um p
Ġwat er
id e
Ġj ump
Ġb a
Ġpe o
Ġpeo ple
ar d
Ġ n
o o
Ġc hi
c e
Ġ red
Ġchi ld
v er
Ġy oun
Ġyoun g
ro wn
Ġa n
Ġb e
Ġ ro
Ġc o
Ġb rown
i m
u e
Ġs no
Ġsno w
Ġg ra
Ġh o
i le
i l
Ġb l
a m
Ġf ro
Ġh is
r i
Ġ lo
e l
Ġs m
Ġbl ue
a d
n ing
b o
Ġo ut
Ġb i
rou nd
Ġdog s
Ġgra ss
Ġs k
rou gh
Ġw al
Ġrun ning
Ġsh irt
Ġth rough
Ġplay ing
Ġwh ile
t her
lo w
re e
ld ing
Ġ u
Ġf i
Ġdo wn
Ġm o
Ġb all
k e
Ġstand ing
it s
v e
Ġl itt
Ġlitt le
a ch
s e
Ġs w
a in
Ġg re
t o
Ġo ver
Ġr id
bo ard
Ġ e
i c
Ġp ers
Ġpers on
t s
Ġlo o
Ġ la
Ġ le
Ġ he
Ġp o
k s
Ġjump ing
n t
Ġu p
Ġr a
itt ing
Ġ k
a s
Ġth ree
Ġfro nt
Ġba ck
Ġs itting
b all
Ġsm all
Ġho lding
e ld
Ġfi eld
Ġro ck
l l
Ġl ar
Ġc ar
Ġb y
Ġgre en
a ck
Ġlar ge
Ġy el
Ġb u
Ġg rou
Ġgrou p
Ġon e
Ġ her
Ġyel low
re n
s ide
Ġc l
at e
y ing
Ġn ear
Ġst re
Ġa ir
Ġwal king
Ġs om
Ġchild ren
Ġs p
a ir
Ġa s
Ġm en
oun t
y c
gh t
Ġin to
Ġf or
re ss
Ġbe ach
ut h
a p
Ġmo uth
n g
ount ain
Ġ re
i ck
Ġsk ate
i f
Ġd ress
Ġjump s
in k
Ġn e
ar k
Ġstre et
he s
im b
h ing
oo d
c yc
Ġa no
Ġano ther
Ġo ther
Ġ its
Ġcl imb
Ġf o
a y
ro w
Ġskate board
Ġrun s
Ġt ra
Ġfro m
Ġrid ing
r an
Ġstand s
Ġbi ke
Ġs ur
g round
Ġc h
Ġc am
Ġsh o
Ġof f
Ġgirl s
Ġt a
Ġs o
Ġw a
Ġm ountain
or m
l i
Ġsom e
Ġout side
x t
cyc le
oo l
en t
Ġj ack
Ġh at
Ġsw im
u l
ran ge
Ġh and
Ġne xt
Ġg o
Ġjack et
Ġf a
Ġo range
ro ss
oo t
Ġloo king
Ġp ink
Ġplay er
p p
c t
er a
Ġs ide
Ġs e
ri ck
Ġc at
c er
u re
Ġthe ir
Ġp ool
Ġw ood
Ġcam era
Ġp u
b y
Ġboy s
u it
Ġwom en
Ġa round
Ġsw ing
Ġsur f
Ġd irt
il ing
hi nd
Ġbe hind
Ġto y
il l
i g
r ying
Ġhe ad
row d
c hes
Ġc rowd
i on
Ġs and
b le
Ġa lo
e e
Ġh i
Ġback ground
on e
Ġso c
Ġbu i
Ġs un
Ġc lo
la ss
Ġst ick
Ġbui lding
t e
Ġsoc cer
Ġa r
Ġw all
Ġs its
t ing
v es
i ght
Ġdress ed
Ġalo ng
Ġh as
Ġt e
Ġp ark
Ġf oot
Ġho ld
d y
Ġwal ks
ch ing
Ġk id
c ross
p s
Ġs l
c ing
Ġ un
Ġm a
Ġplay s
Ġp ic
i e
Ġloo ks
Ġhe l
k et
t ure
Ġh ill
Ġfo ur
Ġb lo
Ġclimb ing
Ġfoot ball
w ard
in e
Ġp a
Ġto p
Ġfa ce
al k
d le
s ing
lass es
Ġt rick
Ġpic ture
Ġswim m
Ġt an
Ġa cross
p e
Ġbi cycle
Ġgrass y
Ġhold s
f t
k es
l y
Ġsk i
ce an
Ġt en
Ġo cean
Ġsm iling
s h
Ġs c
or ts
Ġrid es
at h
g s
Ġco lo
Ġmo t
Ġswimm ing
w ay
Ġba s
Ġm u
Ġ v
Ġh im
Ġbas ket
g et
Ġdo ing
Ġcar rying
h o
Ġh air
am e
Ġe ach
n is
Ġ '
Ġten nis
w alk
Ġt ree
le d
Ġm id
v ing
Ġmot or
Ġsnow y
Ġar m
Ġba by
Ġd r
m et
Ġf en
Ġto get
Ġtoget her
f orm
Ġhel met
Ġb en
or s
Ġ it
Ġsnow board
Ġth at
Ġo ld
Ġun if
Ġbasket ball
Ġare a
Ġro ad
Ġunif orm
Ġblo nd
Ġto ward
Ġ i
g g
Ġp er
Ġb ar
Ġra ce
e y
re st
an s
Ġa bo
it y
Ġgre y
Ġle ap
le s
Ġsh orts
Ġp ur
Ġside walk
Ġben ch
ve red
r is
Ġcat ch
Ġs it
Ġg ame
p h
Ġco u
Ġo b
nd er
Ġba se
Ġwal k
Ġper form
Ġg round
Ġf e
Ġf lo
at ing
d o
Ġu nder
l ing
f f
n e
Ġg u
Ġc on
q u
et hing
Ġsom ething
Ġf ris
Ġfris b
Ġg et
Ġkid s
Ġfen ce
a ge
m p
u b
Ġbe ing
Ġp ath
Ġfrisb ee
Ġd i
Ġc om
Ġla ke
am p
i an
Ġtra ck
ig n
Ġc ity
Ġr amp
Ġbo at
ver al
Ġlo ng
Ġwa ve
r u
Ġskateboard er
a k
an ts
Ġse veral
he d
m ent
Ġout do
if f
Ġpur ple
Ġh u
Ġs ign
Ġa d
Ġd an
Ġco vered
l er
Ġclo t
Ġthe re
Ġhi gh
Ġt re
Ġch as
Ġsl ide
Ġw i
Ġs he
Ġco at
Ġr i
Ġsm ile
Ġbase ball
ir d
Ġthe m
Ġst ri
Ġpo sing
Ġc he
Ġgu y
Ġplay ers
Ġd ark
Ġh a
Ġh or
Ġbi k
Ġre ad
Ġwood en
Ġf li
Ġbi g
Ġta ble
g lasses
Ġmotor cycle
Ġsun glasses
um b
Ġwat ches
Ġsp la
s es
Ġf l
r y
Ġb at
Ġp ar
Ġw et
Ġl i
Ġj e
a c
Ġloo k
Ġte am
Ġcolo r
p ed
u nd
c es
Ġtre es
Ġh an
Ġb al
Ġp ants
Ġco ll
li st
Ġf low
Ġrock s
Ġcou ple
Ġb r
Ġr ide
Ġwat ching
Ġro pe
t t
Ġd ri
f ul
o l
Ġb es
Ġs uit
ri es
Ġhor se
Ġf la
sh irt
Ġarm s
Ġtoward s
Ġbes ide
e at
Ġa g
Ġhand s
Ġb ird
Ġrock y
Ġco ur
Ġri ver
Ġa m
an t
Ġc ap
p en
Ġ "
nd o
it ing
e ct
g ing
Ġ no
Ġwat ch
d d
Ġbu s
Ġsnowboard er
Ġth row
u s
Ġst e
Ġ ve
Ġdo es
Ġk ick
Ġro ll
Ġspla s
u p
Ġw he
Ġad ul
t er
Ġout f
Ġabo ve
m an
Ġra cing
Ġd e
Ġold er
ck ey
Ġsw eat
Ġje ans
Ġla dy
Ġi ce
Ġwh o
Ġo pen
c o
u se
Ġle a
st um
Ġcolor ful
Ġstri ped
Ġco stum
Ġpo se
Ġsl id
Ġcoll ar
Ġfi ght
Ġs et
p ack
Ġon to
Ġwood s
i red
Ġback pack
Ġsur round
Ġmid air
Ġp ho
Ġbo o
Ġpho to
Ġt al
Ġg lasses
pp ing
Ġcl iff
Ġst o
Ġta king
Ġag ain
w s
Ġmountain s
Ġleap s
ur ing
Ġas ian
i es
Ġplay ground
Ġy ard
Ġagain st
at her
Ġbo dy
Ġclimb s
Ġch air
Ġblond e
Ġc a
Ġc ross
Ġp ain
Ġc an
or t
Ġmu d
Ġf is
Ġperform ing
Ġf ountain
Ġbo ard
Ġho ckey
Ġsho re
ft er
Ġsmile s
Ġl ight
Ġw rest
i re
Ġa fter
Ġla ying
ee p
Ġsurf er
u gh
Ġg uit
Ġguit ar
es s
Ġman y
Ġrid er
lo o
Ġre st
Ġchas ing
Ġto dd
Ġswim s
ph one
u ll
ver y
i p
Ġfi re
Ġsk y
Ġpu ll
Ġski er
Ġb rick
at ion
Ġsurround ed
Ġst air
Ġn ight
Ġoutdo ors
b ble
Ġb ri
Ġin side
Ġd uring
Ġsh a
Ġt ur
Ġp ro
Ġgo ld
Ġfl ying
e p
Ġ ed
p et
Ġother s
Ġfo rest
Ġbik er
a g
Ġta kes
Ġcolo red
Ġed ge
w ing
Ġa way
Ġb ed
Ġtodd ler
ad e
Ġwhe el
el l
Ġk ay
Ġpa st
Ġhan ging
Ġbr id
j ect
Ġmid dle
i st
u d
Ġ very
Ġt rying
ld er
Ġbri ght
w e
Ġf all
n er
Ġgra y
Ġle as
Ġsome one
Ġdr in
Ġp re
an ce
Ġb ear
le ss
Ġpu pp
Ġsurf board
Ġoutf it
Ġfi ve
Ġpo in
cyc list
Ġp ad
Ġla ugh
Ġpo le
Ġte en
Ġ en
Ġtra il
Ġob ject
Ġflo or
Ġtal king
Ġba g
Ġste ps
t ed
u st
Ġtra in
Ġma king
Ġwh il
Ġnear by
Ġabo ut
Ġwi ndo
Ġwhil st
Ġs led
st ic
Ġt all
Ġl if
Ġgo ing
Ġflow ers
u g
v el
Ġl ine
u ff
al low
Ġa ll
st ac
ing s
Ġw in
Ġswing ing
Ġha ired
Ġe ating
Ġdan cing
m a
im al
y s
Ġd ay
Ġj ers
Ġth is
il y
Ġpo ses
Ġwa ves
Ġlea ves
Ġbrid ge
Ġ ear
Ġt r
Ġp art
Ġan imal
Ġjers ey
Ġbo tt
Ġsm o
Ġwindo w
Ġleap ing
Ġdi st
n y
Ġe y
Ġoutdo or
Ġp i
ck et
Ġe x
te mp
Ġclot hes
Ġn umb
ap er
Ġcour se
Ġsh allow
Ġle gs
Ġgo al
Ġob stac
Ġb low
Ġco w
Ġho use
Ġs a
re l
Ġat t
Ġat temp
Ġro om
Ġra il
Ġcostum e
Ġfight ing
Ġpla stic
Ġleas h
z z
Ġclot hing
Ġst one
ct ion
Ġsplas hing
d dle
i al
Ġs le
Ġc ur
Ġst ar
Ġcar ries
Ġse at
ho und
Ġsto re
c hed
Ġb et
Ġm et
Ġle an
c re
Ġbu bble
Ġpu s
Ġgrey hound
we en
Ġt ire
Ġc or
Ġm at
Ġbo x
Ġread y
Ġobstac le
Ġbet ween
t h
Ġra iling
Ġclimb er
Ġclo se
Ġget ting
Ġtr un
s c
ar f
Ġla nd
Ġcat ches
Ġadul t
Ġslid ing
b or
h a
Ġover loo
Ġstre am
Ġs i
Ġthe y
le y
ck s
Ġskateboard ing
Ġswing s
Ġroll er
f la
Ġb and
Ġla wn
Ġsp e
gg ing
Ġbat hing
Ġkay ak
Ġwin ter
s uit
Ġd is
Ġshirt s
Ġfe ma
Ġcon cre
Ġve st
Ġsweat er
Ġconcre te
er man
Ġc art
Ġto ng
Ġre t
Ġwa iting
mp ol
mpol ine
Ġd es
Ġc ra
Ġtra mpoline
a ce
Ġw or
Ġo r
Ġp l
Ġc e
et te
Ġcom pet
Ġg ear
Ġwear s
Ġhi k
Ġuniform s
d ing
g ra
t a
Ġs u
Ġc yc
Ġm ar
Ġma le
Ġski ing
Ġmet al
Ġj o
Ġtur n
Ġnumb er
Ġm e
Ġsand y
Ġgold en
Ġtong ue
Ġh ar
Ġsp o
Ġpull ing
i ve
s et
Ġlo t
ic an
Ġup side
Ġk is
Ġcat ching
Ġthrow ing
Ġstair s
Ġbear d
i v
Ġs il
Ġm as
Ġdr ink
Ġcour t
Ġdist ance
Ġt ries
hi c
Ġma kes
Ġget s
Ġf ur
at er
Ġadul ts
Ġphoto gra
Ġfis hing
en ts
ri c
Ġshirt less
Ġsp r
ru ck
Ġfli es
Ġoverloo king
n a
v ed
Ġc ell
Ġsk irt
Ġfema le
Ġa pp
st er
Ġs ub
at es
Ġcou ch
p ar
Ġwood ed
Ġpa ss
Ġtrick s
Ġve hic
i o
p her
Ġh ur
Ġh ors
Ġst un
Ġbus y
Ġdrin king
Ġpupp y
Ġo pp
Ġs qu
Ġdo ck
at s
Ġst ru
Ġl ying
ad ing
Ġchas es
Ġhors es
y ard
Ġ umb
Ġh oo
Ġsp ra
Ġv ie
Ġfla g
Ġcan o
rel la
Ġcyc list
Ġumb rella
n ess
Ġb re
Ġp it
er ican
Ġpu ddle
Ġperform s
Ġcell phone
in s
Ġdo or
on s
Ġwater f
Ġpo nd
Ġra c
Ġsurf ing
Ġread ing
Ġpre par
Ġlaugh ing
Ġp ut
Ġr ight
Ġlean ing
Ġtrun ks
Ġhur dle
j o
l low
ri e
Ġsho pping
li ce
Ġsun set
Ġmu zz
Ġhu ge
Ġfli p
Ġey es
a ur
Ġs lo
Ġr ain
Ġslid es
Ġc ig
Ġm ark
Ġf ood
Ġpo lice
Ġcig ar
it ion
al le
Ġe lder
Ġne ck
Ġsho es
Ġma ke
Ġno se
Ġstun t
Ġvie w
Ġwaterf all
a se
m b
Ġs n
Ġp aper
Ġle ft
Ġra is
Ġfo llow
Ġhat s
Ġsc arf
Ġen jo
Ġlif e
d ge
i um
Ġt ruck
Ġd ra
Ġh ood
Ġst ra
Ġe qu
Ġcom ing
Ġam erican
Ġbubble s
Ġb un
it i
gg les
s el
Ġt ent
Ġf am
Ġbo w
Ġwat ers
Ġgra ff
Ġbi cyclist
Ġfe et
Ġrest aur
Ġhar ness
l ine
n el
p la
Ġt ack
end s
Ġbi kes
Ġfor m
Ġsho w
ul t
ct ure
Ġboo k
Ġequ ip
Ġfam ily
b la
y m
Ġp at
Ġc le
Ġe v
Ġsho u
Ġmu s
Ġmas k
Ġelder ly
Ġgraff iti
Ġrestaur ant
Ġequip ment
he red
Ġp ile
on es
Ġre f
ub e
Ġret rie
Ġt ri
Ġb an
Ġb iting
Ġd eep
Ġr ug
Ġbo th
Ġta ke
Ġroller bla
c ed
in i
Ġg ather
ur al
Ġlo ne
el s
Ġsk is
Ġsk ating
Ġsweat shirt
Ġset ting
Ġstru cture
Ġb m
Ġwet suit
Ġli ke
Ġmud dy
l ers
Ġt er
Ġs ing
Ġin fla
Ġg ym
Ġra ft
Ġdr y
Ġfla gs
Ġfall ing
Ġhik er
Ġa l
Ġc re
Ġsh ort
Ġba gs
Ġk ne
Ġbu ll
Ġtan k
Ġguy s
Ġvehic le
Ġcano e
a king
p ing
Ġbu cket
Ġdress es
Ġbm x
a v
c or
Ġlo w
Ġe le
Ġle dge
Ġcrowd ed
Ġi ndo
Ġpad dle
Ġsi x
Ġspr ink
Ġmus ic
k ers
Ġg erman
at hered
Ġar t
Ġopp o
Ġslo pe
Ġcigar ette
b b
in es
he ad
Ġair bor
pp ed
Ġflow er
Ġdri ving
Ġairbor ne
t y
v ers
an e
ro om
Ġr ing
Ġfa ces
Ġdan ce
Ġha ve
Ġce ment
b an
n ed
p es
end ing
lo red
Ġst at
Ġbl an
Ġgo es
Ġgo ggles
Ġdi ving
Ġpar king
Ġbal lo
Ġcostum es
ta ble
Ġinfla table
m er
Ġ qu
st r
Ġt un
Ġd u
Ġm ult
Ġf ing
at ed
Ġbar e
Ġkick ing
Ġteen age
Ġbott le
Ġsub way
alle n
Ġblan ket
Ġp ie
Ġc rou
Ġm ic
Ġbo un
on g
Ġsp orts
Ġbuilding s
Ġmotor cyclist
Ġsplas hes
Ġsha king
pher d
ar m
Ġt at
er t
is h
Ġf ull
Ġf allen
Ġh it
om e
ach ing
Ġsc en
Ġshe pherd
Ġpar ade
Ġpain t
Ġmic ro
b and
i ce
o p
Ġg i
Ġg lo
Ġst uff
ak ed
ac hed
Ġear s
Ġt u
Ġc ount
Ġg athered
wo r
Ġto u
all y
hi ll
Ġjacket s
Ġche er
Ġbal an
Ġsil ver
i z
Ġm on
Ġf et
ri er
Ġlo g
Ġle ather
Ġback yard
Ġsmall er
Ġso ft
Ġpicture s
Ġthrow s
Ġchair s
Ġsmo king
Ġclose up
Ġtun nel
Ġmicro phone
m o
o re
r ing
Ġh ome
Ġball s
Ġhe ld
Ġsun ny
Ġbik ini
co vered
Ġboo ts
Ġcow bo
Ġev ent
e red
l ic
Ġg ri
Ġst age
id s
on y
Ġcar s
Ġsurf ace
Ġsc oot
Ġunder w
Ġfl uff
Ġkick s
ep ing
Ġfluff y
Ġa f
Ġb ran
gh ts
Ġn et
Ġu sing
Ġhi king
Ġi nd
Ġoutf its
Ġpro te
Ġpus hing
Ġrug by
Ġpie ce
Ġp h
Ġd ig
Ġc ut
Ġg lass
ad o
Ġle g
gg y
Ġpain ted
Ġpoin ting
Ġcle ar
Ġstat ue
Ġstuff ed
Ġst eep
Ġk n
Ġstick s
Ġbal d
Ġswims uit
Ġteen ag
Ġblow ing
Ġspra y
Ġgri nd
o ut
t oo
Ġt ube
Ġco ver
Ġk it
Ġblo ck
Ġv ol
Ġshe ep
Ġdrin ks
Ġsle e
Ġsu its
Ġtat too
a ches
d er
m e
Ġf un
at ors
Ġla p
Ġsho t
ph ones
Ġcon t
Ġwi nd
Ġsle eping
ley ball
Ġspe ed
Ġscoot er
Ġvol leyball
s ed
Ġf il
Ġwh i
Ġsh oot
Ġbe a
Ġsp ect
Ġhi nd
Ġhu gging
Ġwrest ling
Ġpad d
Ġcor ner
ha ired
iv al
Ġfur ry
a ster
g er
w k
ar y
Ġb ut
Ġs ame
le t
is e
Ġh al
ap e
Ġfo re
Ġdr um
Ġhan gs
Ġcross ing
Ġpoin ts
Ġdis pla
Ġphotogra ph
Ġcowbo y
Ġf ri
Ġf air
Ġpla t
ad s
Ġle ans
Ġwrest le
Ġattemp ting
Ġstar ing
Ġkis sing
Ġmark et
Ġbun ch
Ġaf ric
Ġbea ut
Ġspect ators
i ge
Ġa p
st and
Ġw ading
Ġp ra
ro n
Ġc up
Ġg ard
ra ck
Ġl ick
ch ool
im e
Ġla ys
Ġfa st
Ġfe w
Ġteam s
Ġam ong
Ġpart y
Ġattemp ts
ado w
Ġgard en
Ġ end
Ġw ide
Ġin str
Ġbe low
Ġbe ige
ri st
to p
Ġfa cing
Ġbicycle s
Ġsnowboard ing
Ġpupp ies
Ġdes ert
io us
Ġinstr um
c he
d s
l s
in ed
Ġb ath
Ġs chool
Ġp et
ro ll
Ġon loo
un g
ur ban
Ġcar pet
Ġfen ced
Ġfis h
Ġbott om
Ġsn iff
sel f
Ġafric an
b i
d ies
e re
Ġw r
Ġo wn
Ġp ack
Ġh ap
al s
Ġro w
ic al
Ġra cket
if ul
Ġch ain
Ġstick ing
Ġatt ached
Ġcompet ition
Ġsprink ler
Ġsoft ball
Ġunderw ater
Ġbeaut iful
a ks
w he
Ġ rough
Ġw ay
Ġp ood
et rack
il s
Ġe mp
Ġe ats
Ġpo les
Ġstre t
Ġoff ic
Ġwa ving
Ġhead band
tt ed
Ġapp ear
Ġhoo p
Ġrac etrack
Ġonloo kers
b er
f oot
f ull
n s
u ght
v en
Ġt ro
al m
ut e
ide o
Ġn aked
Ġgra vel
Ġmo to
Ġwa it
Ġwa ke
Ġv ideo
Ġhu la
Ġdan ces
Ġroll ing
co lored
Ġtal ks
Ġwaters k
Ġph one
Ġwhi ch
full y
st re
Ġw ings
Ġb ur
Ġp ick
Ġg un
Ġra cer
Ġsign s
Ġpar ach
Ġprepar es
Ġemp ty
Ġmoto cross
i er
o d
o u
p y
Ġin t
Ġd un
Ġc ard
Ġh its
et h
Ġpla id
Ġj ust
Ġdown hill
Ġmo ha
Ġla dies
Ġhand stand
Ġpu b
Ġtoy s
Ġhead s
ward s
Ġdi re
Ġcom p
Ġbr ide
Ġbird s
Ġca st
Ġseat ed
Ġpus hes
Ġbare foot
Ġbran ch
Ġmoha wk
c her
e st
Ġt w
Ġh ard
ver t
Ġro d
ve ment
Ġsho p
Ġclo ud
Ġpa vement
Ġmotor bi
Ġflo at
Ġha ving
Ġpain ting
Ġshou lder
Ġpadd ling
Ġdispla y
Ġplat form
Ġpub lic
i en
Ġt ug
Ġc la
Ġc rick
Ġm ed
Ġskateboard s
Ġtra ff
Ġpi er
Ġcre am
Ġscen e
ere nt
Ġcrick et
Ġtraff ic
Ġw ed
Ġs ay
Ġp ul
Ġd iff
er y
la nd
Ġl it
Ġout stre
Ġra p
Ġne ws
Ġse a
Ġche wing
Ġread s
sc ape
Ġglo ves
Ġpra ct
Ġwake board
Ġdiff erent
k en
Ġ urban
in ning
st age
Ġc ree
Ġm i
Ġm il
Ġr ural
Ġst roll
Ġth rown
Ġbe er
Ġho se
Ġra ces
li ght
Ġdirt y
Ġte eth
Ġdri ves
Ġland scape
Ġkit che
Ġhal f
Ġkitche n
c ase
f ore
i ed
n ival
p er
Ġa c
ar e
ar s
Ġw e
re ad
Ġto ss
Ġbe fore
Ġmo ther
Ġcar nival
Ġbar s
Ġspla sh
Ġrest ing
Ġsmo ke
Ġmat ch
Ġballo on
Ġcheer le
Ġfil led
ien ce
Ġnews p
Ġ round
Ġb ro
Ġs um
Ġs ant
Ġc and
Ġf ly
Ġst ad
id ing
id es
Ġto w
Ġyoung er
Ġla b
Ġwa its
ct ive
Ġpa ved
Ġwi re
Ġli es
Ġgoal ie
Ġpl ants
Ġbeard ed
Ġindo or
Ġoppo sing
Ġwed ding
Ġsay s
Ġcree k
Ġ 2
Ġa ud
Ġr an
Ġat v
Ġco l
el ing
Ġsk in
Ġsho wing
Ġhead phones
Ġde cor
Ġwrest ler
Ġanimal s
Ġblow s
Ġgreyhound s
Ġform ation
av y
Ġrap ids
Ġstad ium
st ru
it es
Ġon stage
Ġh ay
ld ers
es e
Ġth ird
Ġat h
Ġbl ur
Ġsk ates
Ġmo ving
Ġre aching
Ġpark ed
Ġsc re
Ġboat s
Ġche ck
Ġli ghts
ess ion
Ġband an
Ġsant a
m as
n ic
q ue
s k
Ġt ie
Ġt alk
Ġf an
Ġf ra
ir st
Ġr ub
Ġbo und
Ġrun ner
Ġmouth s
Ġch ase
Ġch rist
Ġse en
Ġam use
Ġwhe re
Ġde ck
Ġfall s
Ġex p
Ġsa f
Ġcra w
Ġwor k
Ġsing ing
Ġfing er
Ġfore ground
Ġinstrum ents
Ġbandan na
a z
b r
b ack
g es
g on
o s
r in
Ġ z
Ġ ent
end ed
Ġm art
Ġm ach
Ġg ian
ir c
en s
Ġe mb
ic yc
Ġclo wn
Ġhelmet s
Ġpro f
Ġcur ly
Ġmat ching
Ġref le
Ġter ra
Ġdu ck
Ġfun ny
Ġshoot ing
Ġpood le
Ġmotorbi ke
Ġpul led
Ġcheerle ad
s er
t ched
Ġt ry
Ġc irc
Ġg l
Ġh itting
Ġsh adow
Ġbe g
Ġro pes
Ġho t
ke y
ic o
Ġre aches
Ġun icyc
ho u
Ġflo ating
Ġstair case
Ġbright ly
Ġpi pe
Ġoutstre tched
Ġnewsp aper
Ġaud ience
Ġchrist mas
Ġamuse ment
Ġunicyc le
c y
s p
Ġd ust
Ġst ud
ed s
Ġat op
Ġn at
Ġho le
ic ip
Ġtra vel
Ġsho vel
Ġalong side
Ġv i
Ġpur se
Ġfli ght
Ġbus hes
Ġsto p
Ġsha kes
Ġwheel ie
Ġspo tted
Ġprepar ing
Ġneck la
Ġrais es
Ġshou lders
Ġretrie ver
Ġban k
Ġteenag ers
Ġgrind ing
Ġmart ial
Ġgian t
e o
o f
Ġ start
Ġs wor
Ġin c
Ġd en
Ġpla te
Ġl ined
Ġgra b
Ġe xt
Ġk ite
Ġlar ger
Ġch o
Ġse e
Ġsurf s
Ġski ers
Ġgu ard
qu et
Ġpull s
Ġbre ak
Ġmuzz le
Ġfollow s
Ġcount er
Ġdig ging
Ġappear s
Ġdire ction
Ġcomp ut
Ġpract ic
Ġ im
Ġs us
et y
Ġj eep
ra il
Ġro wing
Ġco ld
Ġalo ne
gg ed
Ġad vert
Ġpar as
Ġhan g
ol in
Ġey e
Ġcra s
Ġhik ers
Ġsil hou
Ġapp ro
Ġput ting
Ġmuzz led
Ġenjo ys
Ġhood ie
Ġstra w
Ġrollerbla d
Ġmult i
Ġbalan cing
Ġcover ing
Ġrod eo
Ġterra in
Ġden im
g o
u red
Ġw ra
Ġst ation
bo at
Ġmo und
Ġpo st
Ġback s
Ġback wards
Ġsp inning
Ġre la
ct ing
Ġpic nic
Ġhim self
Ġcon stru
Ġri bb
Ġche st
Ġlea f
Ġsha ggy
Ġpart icip
Ġme mb
Ġsqu irt
Ġput s
Ġhood ed
Ġtri cycle
Ġkne eling
Ġindo ors
Ġpaddle s
Ġmult ico
Ġgi ves
Ġgi ving
Ġparach ute
Ġw arm
Ġb ite
Ġs er
it ary
Ġp ed
er ing
Ġc lass
Ġg ar
Ġg ate
Ġj u
ch air
Ġjump ed
ap ed
Ġsho ws
Ġhand rail
dd er
Ġlaugh s
Ġpi ge
Ġsi z
Ġele ct
Ġsus p
l f
p l
s ite
Ġ ;
Ġ ite
Ġp ig
en ing
Ġplay fully
Ġpe ace
Ġro b
Ġrid ers
Ġla dder
Ġne w
Ġcam p
Ġso on
Ġunder ne
Ġclot h
Ġbackpack s
Ġcompet ing
Ġenjo ying
Ġlick ing
Ġsniff ing
Ġwr iting
Ġown er
Ġcloud s
Ġsaf ety
Ġemb ra
Ġprof ession
Ġvi olin
Ġneckla ce
Ġrela x
Ġconstru ction
Ġite m
o us
in ing
Ġw ar
Ġb ites
Ġg ro
Ġst ring
id ent
Ġj ung
ur f
el ling
li ke
Ġse ven
Ġbik ers
Ġdri ve
Ġste p
Ġcor n
Ġpass ing
Ġdoor way
Ġtack le
Ġter rier
Ġqu ick
Ġfing ers
Ġfet ch
Ġmach ine
Ġparas a
Ġunderne ath
Ġjung le
e ree
Ġthe se
Ġp un
Ġp ony
an g
Ġm ir
Ġm ade
Ġr ink
Ġst ump
Ġj et
Ġth o
ite d
Ġsh ar
Ġcam ou
Ġta ken
Ġhead sc
Ġhill side
Ġpa ws
Ġcoat s
Ġcoll ie
Ġsplas hed
Ġwheel chair
Ġsa il
fla ge
Ġjo ckey
Ġbow l
Ġref eree
head ed
Ġdu cks
Ġcrou ches
Ġcount ry
Ġfri end
Ġwatersk i
Ġmil itary
Ġdecor ated
Ġcomput er
Ġrollerblad es
Ġpige ons
pl ane
Ġprofession al
Ġquick ly
Ġmir ro
Ġcamou flage
a st
b ile
o c
Ġ ic
Ġw as
Ġb ra
Ġd ro
er ry
Ġc one
al ing
Ġbo u
Ġth umb
Ġco ff
Ġsk ater
Ġe mer
Ġcar ri
Ġhel ps
Ġbar rier
Ġob ser
Ġwalk way
Ġdri ver
Ġca ught
bble s
Ġkay aking
Ġtrun k
Ġdes c
Ġspo ts
Ġphotogra pher
Ġhoo ps
Ġrollerbla ding
Ġoppo site
Ġboun cing
Ġbalan ces
Ġhome less
Ġwind s
Ġscre en
Ġheadsc arf
p t
u ses
z en
ar ate
ro ad
Ġg room
Ġh all
Ġwith out
Ġwat ched
el f
Ġbi king
Ġla y
Ġk arate
Ġstreet s
Ġsho wn
Ġwa gon
Ġar ts
Ġten ts
Ġtrack s
Ġhu g
Ġli st
Ġno t
Ġland ing
Ġkis s
Ġcourt yard
Ġballo ons
Ġdun e
Ġstroll er
Ġsoon ers
Ġmirro r
Ġcoff ee
c ts
o t
ar row
Ġp rin
Ġc oo
ck ing
itt en
am a
Ġu ses
Ġe at
Ġe aster
Ġhe avy
Ġsp id
Ġre ach
Ġclimb ers
Ġpu ck
Ġhel ping
Ġbar king
ru sh
Ġche e
Ġmotorcycle s
Ġroll s
Ġde v
Ġdis c
Ġmake up
Ġform al
Ġmon key
Ġfet ching
Ġprote st
Ġhap p
Ġcard board
Ġmed ium
Ġran ge
Ġblur ry
Ġfra me
Ġsusp ended
Ġgro cer
l it
t on
u es
Ġ 5
Ġt i
Ġt ut
Ġw ell
Ġb ending
Ġin ter
le ep
Ġg r
Ġf ree
Ġf ather
all s
hi on
ple ss
Ġpe e
Ġco aster
il low
il ity
am i
Ġfro zen
Ġra f
Ġas leep
Ġne on
Ġmountain side
ul ar
Ġgo lf
pp y
Ġblo cks
Ġsc ar
Ġje an
Ġbal c
Ġflow ered
Ġde f
Ġde ad
Ġjersey s
Ġpl ane
Ġjo gging
Ġcyclist s
Ġrais ed
Ġpat ch
Ġkne els
Ġtou ching
Ġkn it
Ġpet ting
Ġmi ami
Ġrub ber
Ġbeg ins
Ġpractic ing
Ġcras hing
Ġhapp ily
c ial
d u
e led
i ans
k y
m en
s o
v ie
in is
Ġt ight
Ġb end
Ġp ir
Ġp or
Ġp ump
Ġd us
Ġc as
Ġm ess
Ġon ly
Ġh um
al ley
lo r
Ġwh ist
Ġpla in
Ġl u
Ġsnow ball
Ġair plane
Ġsp ark
Ġsp ort
Ġfor ward
Ġmountain top
Ġv ar
Ġbar rel
Ġhu ddle
Ġdri bbles
Ġfla m
Ġlea ving
Ġsurround ing
Ġca ke
Ġcross es
Ġshore line
Ġtur ning
Ġtrain ing
Ġatt ire
Ġtire s
Ġbox ing
iz on
Ġind ian
Ġteenag er
Ġspray ed
Ġgrind s
Ġbalc ony
Ġdus k
c lo
d en
m ed
n ers
u its
Ġ 1
Ġa ction
Ġb in
Ġs li
Ġp ine
Ġp ort
Ġd a
Ġd im
Ġc ro
Ġc ent
Ġf arm
ck ed
Ġto wn
Ġco ach
Ġlo ts
bo w
Ġover alls
ll y
Ġch ur
ul p
Ġhand le
Ġfa ke
ure s
Ġhill s
Ġflo r
Ġcom es
Ġhu gs
Ġhor izon
Ġam id
Ġboard walk
Ġwrest lers
Ġatt ack
Ġcur b
Ġcur ve
Ġskirt s
Ġsqu are
Ġrac quet
Ġpolice man
Ġbicyclist s
Ġtack led
Ġal mo
whe el
Ġath let
Ġsiz ed
Ġwaterski ing
Ġgrocer y
Ġpor ch
Ġalmo st
b ull
c ut
i nd
t le
u al
u dy
Ġ 3
Ġa ut
Ġa head
Ġt y
Ġt ime
Ġs ides
Ġp an
Ġp air
ro nt
le br
Ġg est
Ġho w
Ġfi g
Ġfo am
Ġta il
Ġclo sed
Ġma g
Ġsc ub
Ġsc ulp
Ġv is
Ġv alley
ho use
Ġdi ves
Ġshe et
Ġthem sel
Ġrest s
ag le
Ġsmo kes
Ġkayak er
Ġwor king
Ġce lebr
Ġmuzz les
Ġenjo y
Ġal ley
Ġcrou ching
Ġcont ain
Ġfri ends
Ġoffic er
Ġsum o
Ġwra pped
Ġsculp ture
Ġthemsel ves
a les
d ay
d ie
f a
f e
g ie
i gh
m in
t ube
y le
Ġ 4
ar a
Ġt ile
Ġt ig
Ġo k
Ġp in
Ġd in
ro pe
is ing
Ġf irst
Ġto ur
Ġth in
um n
Ġchi ck
Ġred headed
Ġbe am
Ġmo ves
Ġpo w
Ġsp read
Ġwood land
Ġhi ke
Ġclo udy
Ġpa j
Ġswimm er
Ġfe st
Ġfe ed
Ġcon es
Ġcon cer
Ġstri p
Ġfli ps
ac her
Ġcolor s
ist s
Ġex c
Ġex am
Ġvehic les
Ġrain bow
Ġfollow ing
Ġshow er
Ġgather ing
iz ed
Ġkn ee
Ġtattoo s
Ġap ple
Ġcand les
Ġtow el
Ġcheerlead ers
Ġstud ents
Ġim age
Ġribb on
Ġmemb ers
Ġmultico lored
Ġtho ugh
Ġthumb s
Ġwinds urf
Ġscub a
c ount
d a
m on
t es
Ġw ine
Ġb rush
Ġin ner
Ġp alm
Ġp illow
Ġm erry
Ġg e
Ġf ans
at or
Ġst om
Ġto pless
Ġpla ce
ers k
Ġro of
Ġsnow mo
ad es
Ġmo st
Ġmo ve
Ġle ading
Ġle ads
Ġtra sh
Ġch alk
Ġsho e
Ġso da
Ġsurf ers
ill y
Ġsand als
Ġkid die
Ġob ama
Ġfe ather
do wn
Ġwi ld
Ġche ws
Ġteam m
Ġroll ersk
Ġca ve
Ġcross walk
Ġlif t
Ġspe aking
Ġvest s
Ġmar king
Ġturn s
Ġkis ses
Ġpass es
Ġspra ying
Ġpit cher
Ġpat io
Ġgym na
Ġdrum s
Ġap ron
Ġcol le
Ġfan cy
Ġswor d
Ġsilhou ette
Ġshar p
Ġeaster n
Ġchee k
Ġscar ves
Ġtig er
Ġstom ach
c l
d ress
g re
h ood
i ble
Ġ 8
Ġa er
Ġa im
in y
Ġt ub
Ġs la
Ġp en
Ġm om
la te
Ġf r
Ġr u
Ġst u
Ġst ool
um ent
Ġpe ak
Ġsw an
Ġpo l
Ġpo t
Ġcar ry
Ġher self
Ġsp ar
ap ers
ap ped
Ġits elf
Ġfo ggy
Ġso fa
li ps
ct or
Ġcat cher
Ġte le
Ġhel p
Ġsc r
Ġsc aling
Ġmot ion
way s
Ġcon vers
Ġtable s
Ġli ving
Ġboo th
Ġboo gie
Ġpre t
Ġen g
Ġen clo
Ġseat s
Ġsu pp
Ġmar ching
Ġturn ed
Ġspo t
Ġpit bull
pla ce
Ġtri p
Ġban ner
Ġal so
Ġsprink lers
Ġtou ches
Ġslee ps
Ġhap py
Ġskin ned
Ġcraw ls
Ġelect ric
Ġembra ce
Ġlist ening
Ġtut u
Ġpir ate
Ġcent er
Ġchur ch
count ry
b at
c ent
f ight
h day
k ed
t ime
x ed
Ġ ke
Ġt ar
art er
Ġb le
Ġb irt
Ġb ill
Ġin line
an ese
la h
Ġf le
Ġwh at
Ġplay ed
Ġj ap
Ġy o
Ġsh aped
Ġbe ads
Ġsnow suit
Ġlo c
Ġsk ull
Ġrid den
Ġre s
Ġch ines
Ġcam er
Ġse ag
ill ing
Ġwall s
Ġben ches
gg er
Ġchas ed
Ġche w
Ġbr un
Ġag ility
Ġca se
Ġleas hes
Ġbag p
Ġstar es
Ġret ur
Ġcompet e
iv id
Ġopp on
Ġtack ling
Ġrollerbla der
Ġele ph
Ġind ivid
Ġprote ctive
Ġlick s
Ġexp ress
Ġcirc le
Ġadvert ise
Ġped est
Ġcarri age
Ġraf ting
Ġvar ious
Ġty pe
Ġinner tube
Ġbirt hday
Ġjap anese
Ġchines e
b ric
f irst
f ront
h at
l t
s ition
Ġ ident
Ġs ings
it al
Ġc ran
le te
Ġm one
Ġg ent
Ġg az
om a
wo od
Ġy ou
Ġsh ip
Ġro ws
il t
am as
el y
ad ed
Ġla un
Ġle ad
Ġpo uring
Ġbu sh
Ġre ar
Ġre cor
if ier
Ġne igh
Ġfo li
Ġside ways
Ġpa le
Ġflo ck
Ġflo ats
Ġcom ple
ak i
Ġje w
Ġca fe
Ġpre s
Ġrail road
Ġbox er
bor hood
Ġdes k
Ġwor kers
Ġpl ant
ta ils
Ġphotogra p
Ġrais ing
Ġfollow ed
Ġbow ling
Ġretrie ving
Ġsing le
Ġmusic ians
Ġboun ce
Ġtu lips
Ġtou ch
Ġslee ve
Ġbath room
Ġpick ing
Ġskin ny
Ġnat ural
Ġgar b
Ġic y
Ġbou lder
Ġhall way
Ġspid erman
Ġdev ice
Ġda ught
Ġok lah
Ġpaj amas
Ġfeed ing
Ġge ese
Ġmarking s
Ġseag ull
Ġmone y
Ġgent le
Ġneigh borhood
Ġoklah oma
a ss
a ble
b erman
c om
e ath
f ire
g y
i a
i ally
k a
n am
t ub
Ġw ig
Ġb ends
Ġs im
Ġs light
Ġs illy
Ġg all
Ġg row
Ġdo ll
Ġdo berman
Ġf ar
at ure
es c
Ġto o
Ġto ile
Ġsh ade
Ġrun ners
Ġn arrow
Ġlo un
Ġe ight
Ġpo sition
Ġbu l
Ġtra d
Ġcam el
Ġcam els
Ġfa bric
Ġhead first
Ġte al
Ġsc ales
Ġben eath
gg age
Ġbar ren
ak ers
Ġhu sk
Ġli ps
Ġset s
Ġfis her
Ġfis hes
Ġswims uits
Ġpro du
ag ed
Ġwheel s
Ġlif ts
Ġpart ially
Ġattemp t
Ġland s
Ġme et
Ġspr in
Ġpat ter
Ġglo ve
Ġcont ro
Ġphotograph s
Ġint era
Ġath lete
Ġbound s
Ġcraw ling
Ġwork er
Ġrefle ction
Ġcheerlead er
Ġemer ges
Ġprin t
Ġpump k
Ġbin oc
Ġathlet ic
Ġaut umn
Ġfig ure
Ġmag az
Ġconcer t
acher s
Ġsnowmo bile
Ġmost ly
Ġteamm ate
Ġfr uit
Ġstu ck
Ġble achers
Ġbrun ette
Ġexpress ion
Ġpedest ri
Ġfoli age
Ġgall ery
a w
c ers
c apped
g ed
g ers
i pe
m s
o red
u zz
v al
z a
Ġa ss
Ġa qu
in ess
st ick
Ġw eat
Ġs ne
Ġs up
Ġin f
Ġd alm
Ġc al
Ġm ural
Ġdo n
Ġh ut
id er
Ġto ps
Ġpla za
wn ing
or ting
Ġl ink
Ġan t
Ġbe en
Ġho uses
Ġe very
Ġk h
if ic
ent al
Ġse co
Ġar c
Ġma les
Ġv an
Ġflo ps
Ġtre at
Ġshe er
Ġstri pes
Ġfli pping
Ġag ed
Ġcap e
Ġcap s
ect ion
Ġde er
Ġfire wor
Ġbrid es
Ġdist ant
Ġspe aks
Ġfema les
Ġme adow
Ġbre aking
Ġpit ch
Ġrac ers
Ġdra g
Ġcle an
Ġbucket s
Ġart ist
bb ling
Ġmon ument
Ġsniff s
Ġoffic ers
Ġparach ut
Ġcast ing
Ġbro ther
Ġtravel ing
Ġstart ing
Ġgrab s
Ġparticip ate
Ġrob e
Ġjockey s
Ġflor al
Ġamid st
Ġpow er
Ġpol ka
Ġdaught er
Ġslight ly
Ġsne akers
Ġseco nd
t or
w a
Ġ esc
st ro
Ġt ran
Ġt ied
Ġw and
Ġo ri
Ġs at
Ġin te
it her
Ġd and
Ġd ump
Ġc rying
Ġm is
Ġm all
Ġm ur
Ġm ini
Ġg oo
Ġf at
at ting
ld ed
om s
et ted
or k
Ġplay pen
Ġare na
ge e
Ġba y
Ġbe agle
Ġgra bb
il ar
el ry
bo x
Ġsk im
ve st
as hion
ack s
Ġbu nd
Ġsp i
Ġsp ace
Ġsp ins
ul ars
Ġpu sh
Ġpa c
Ġmid st
Ġhelmet ed
gg ling
Ġbik inis
Ġfla t
Ġbus iness
co at
co late
Ġcross ed
ort ed
Ġboard ing
Ġsky line
Ġstair way
Ġsha ved
ist er
Ġpoin t
Ġsled ding
Ġpl an
iv ers
Ġmas ks
Ġmark ed
ition al
Ġdra wing
Ġstra ight
Ġretrie ves
Ġmusic al
Ġqu arter
Ġcrou ched
Ġbran ches
Ġspeed s
Ġinstrum ent
Ġbath tub
Ġtro t
Ġhard hat
Ġwakeboard ing
Ġtoss ing
Ġbro ken
Ġcand y
Ġswor ds
Ġcho colate
Ġappro aching
Ġleaf y
Ġrob es
Ġcamp fire
Ġrelax ing
Ġdrive way
Ġpony ta
Ġhum an
Ġwhist le
Ġlu ggage
Ġfest ival
Ġexc ited
Ġoppon ent
Ġeleph ant
Ġadvertise ment
Ġcran e
Ġjew elry
Ġgentle man
Ġcontro l
Ġbinoc ulars
Ġinf ant
Ġkh aki
Ġarc ade
Ġfirewor ks
Ġinte rest
Ġmur ky
Ġgrabb ing
b ies
b ars
c an
h and
l ud
r ings
u als
w ar
z e
Ġo per
Ġs ad
Ġs que
it or
Ġp y
Ġd read
Ġc age
ir ing
un k
lo cks
Ġst range
Ġst ill
en ed
Ġto ol
Ġl ines
ers ection
Ġwater me
Ġjump er
Ġn i
Ġn avy
ce pt
Ġbe ver
Ġbe lly
Ġco bble
il er
Ġlo gs
Ġe ither
Ġup hill
ren ch
Ġcl ub
Ġre p
ick et
if e
Ġta g
Ġwa ist
pp er
Ġpa w
ub by
Ġdi ver
Ġhorse back
Ġopen s
Ġsto ps
Ġcan n
Ġfountain s
Ġtodd lers
Ġkay aks
we ed
Ġnumb ered
Ġatt ent
Ġstar s
Ġsu v
Ġme al
Ġbun gee
Ġkne es
Ġele v
Ġscen ic
Ġtu gging
Ġtu xed
Ġdig s
Ġkit es
Ġslee ved
Ġrow boat
Ġstret ching
Ġbur ied
Ġint ersection
Ġdust y
Ġshovel ing
Ġinc lud
Ġadvert ising
Ġmulti ple
Ġpig tails
Ġcountry side
Ġspark lers
Ġflam es
Ġdim ly
Ġvis ible
Ġtrip od
Ġphotograp hed
Ġsim ilar
Ġtrad itional
Ġweat her
Ġpac ifier
Ġponyta il
Ġdread locks
Ġwaterme lo
a b
b ed
e en
f o
g irl
n es
p ical
t ruck
Ġa ct
Ġt v
Ġb room
er c
Ġc rown
Ġc ru
Ġg al
Ġdo ors
Ġf el
Ġf ashion
Ġh iding
Ġman e
lo ng
om ing
Ġl imb
Ġl ane
Ġsh r
Ġsh oo
Ġba d
Ġn av
Ġbe e
Ġco ws
Ġco vers
Ġsnow capped
il led
el ion
Ġbi cyc
se um
Ġrid ge
ic s
Ġle tt
Ġhe av
Ġpo ster
Ġas c
Ġch in
Ġcam ping
Ġgo wn
Ġhead dress
Ġhi kes
Ġswimm ers
Ġcolo ur
Ġmu sc
Ġmu seum
Ġv a
Ġv end
Ġuniform ed
Ġbar n
Ġperform er
Ġad m
Ġbal ance
Ġwhe eled
Ġsweat ers
Ġopen ing
Ġlight ing
Ġfire truck
Ġpoin ted
Ġwindo ws
Ġpus hed
Ġwor ks
Ġjo gs
ban k
Ġmotorcyclist s
wor k
Ġap art
Ġpood les
Ġstret ches
Ġoffic ial
Ġwatersk ier
Ġcard s
Ġfloat ies
Ġtoss es
Ġcheck ered
Ġgl iding
Ġsilhou etted
Ġappro aches
Ġelect ron
Ġdesc ending
Ġsli p
Ġhandle bars
Ġgest ures
Ġrollersk ating
Ġaer ial
Ġenclo sed
Ġbill board
Ġcamer as
Ġindivid uals
Ġident ical
Ġgrow ling
Ġtoile t
Ġloun ge
Ġfisher man
Ġori ental
Ġdand elion
Ġbund led
Ġtrot ting
Ġcann on
b e
c ar
i ers
l ph
l ines
p o
z es
Ġ #
Ġ vert
st ri
Ġt iny
Ġt icket
ing ing
Ġw ades
Ġs na
Ġs elling
re sh
Ġp oun
ro p
Ġc r
Ġc us
Ġc alm
Ġm el
Ġm ist
is ion
Ġdo t
Ġdo lph
la bor
Ġf uzz
Ġr ings
Ġr ally
ld o
Ġbo r
et tes
Ġj a
ra d
Ġy a
ur s
Ġba bies
Ġn ice
oo p
Ġfro lic
ke ys
Ġe u
ic op
ic ally
Ġle ot
Ġpo ss
Ġpo ps
Ġoff ice
Ġso aked
li g
Ġhand les
Ġgo at
ct ed
Ġse c
Ġar ch
Ġpark a
Ġhel icop
Ġarm y
Ġsnowboard ers
Ġbar ks
ff y
qu o
Ġpath way
Ġdi ve
Ġdan g
Ġdan cer
Ġfl ute
Ġbat man
Ġli p
Ġdri bbling
Ġde mon
Ġcollar s
Ġboo ks
Ġpain ts
ation s
Ġnight time
ag es
Ġwheel er
Ġtrain er
vel y
Ġex erc
Ġstar e
Ġrailing s
Ġdis h
Ġcart s
Ġfur n
Ġpass en
Ġcano es
Ġumbrella s
Ġmark er
Ġgraffiti ed
Ġunderw ear
Ġtattoo ed
Ġlap top
Ġbut ter
Ġchain s
Ġstret ch
Ġtro pical
Ġbur ning
Ġpick s
Ġtw irl
Ġhard wood
Ġcla pping
Ġwe eds
Ġsum mer
Ġlab rad
Ġrefle ctive
Ġext re
Ġribb ons
Ġmemb er
Ġsquirt ed
Ġrelax es
Ġitem s
Ġdro pping
Ġcoo king
Ġchick en
Ġtrash can
Ġgymna stic
Ġyo uth
Ġbul ldo
Ġhusk y
Ġpedestri ans
Ġbrides ma
Ġskim py
Ġfel low
Ġmane u
Ġshoo ts
Ġnav ig
Ġcolour ful
Ġvend or
Ġfuzz y
Ġleot ard
Ġhelicop ter
f i
g u
g ress
j e
j ured
k er
l led
s u
s ion
Ġ 6
in ned
st on
st yle
Ġw ade
Ġw rist
Ġb ump
Ġs ell
Ġin jured
is es
is ed
Ġg ood
Ġh y
Ġh am
Ġh allow
at o
al t
Ġr ust
Ġst yle
Ġto r
ra m
Ġy ork
Ġn ap
Ġbe long
Ġbl ind
Ġsk e
Ġover h
Ġover head
Ġe labor
Ġla ss
Ġla cross
Ġhe art
Ġback stro
Ġsp orting
Ġre g
if t
Ġfo lding
Ġskateboard ers
ran t
Ġch ara
Ġfa cial
Ġsun light
Ġun ivers
Ġma ss
Ġfootball er
Ġski es
Ġsc ore
Ġmu stac
Ġflo ppy
Ġcon f
Ġcom e
Ġcom m
Ġshe l
Ġfl an
Ġkick ed
Ġde p
co t
Ġcostum ed
ip es
Ġfire place
Ġpro gress
Ġleas hed
Ġbear ing
Ġbott les
Ġpi zz
Ġmar sh
Ġjo y
Ġsub mer
Ġspra ys
Ġbre ad
Ġpit ching
Ġhurdle s
Ġbun ny
Ġflower y
Ġboun cy
Ġtu ss
Ġblock ing
whe re
Ġstret ched
Ġcast s
Ġsea weed
Ġwakeboard er
Ġscre am
sk inned
Ġbound ing
Ġexp lo
Ġstud io
Ġnat ive
Ġinc line
Ġcho ppy
Ġpost s
Ġtricycle s
Ġmultico lor
Ġparasa iling
Ġobser ves
Ġdesc ends
Ġcoo k
Ġti ghts
Ġpee ks
Ġcontain er
Ġscr at
Ġtar get
Ġpres ent
Ġseagull s
Ġass ist
Ġaqu a
Ġsque e
Ġbever age
Ġcobble st
Ġinclud ing
nes ses
Ġgal lo
Ġheav ily
Ġsna ke
Ġcus hion
Ġeu rope
quo ise
Ġdemon str
Ġbridesma ids
Ġhallow een
Ġblind fo
Ġelabor ate
Ġchara ct
b ur
b ul
b by
b ell
c ra
d ion
d rant
f illed
h ite
i ent
i vely
m ents
o nd
o on
p ain
p ass
s pe
t al
t ur
u ps
v o
v ision
w l
w hite
y on
Ġ !
Ġ ends
in j
in er
ar ing
st e
st ers
Ġt ru
end ers
Ġb ent
Ġo ll
Ġs on
Ġs hed
Ġs ort
it ure
Ġp ian
Ġp rie
Ġp apers
an ge
Ġc ans
Ġm itt
Ġg ive
Ġdo min
la ge
Ġf in
Ġf iring
Ġwith in
Ġman s
Ġst orm
Ġst ones
Ġbo ne
Ġth ings
Ġl ion
Ġsh are
Ġwater cra
oo ps
Ġbe an
Ġro lled
Ġho ps
Ġho sp
ri ers
Ġlo ve
Ġout c
Ġbi gger
Ġmo ss
Ġmo use
Ġgre at
Ġle ar
Ġhe els
Ġpo p
Ġpo urs
Ġk no
as h
Ġrock et
Ġsp ons
Ġre lig
Ġjumps uit
row s
Ġtra ctor
Ġsho ps
Ġso ld
Ġside lines
Ġse as
Ġcat s
Ġun cut
Ġpa uses
sh und
ath on
Ġmu g
Ġsnowboard s
gg le
ris ed
ph y
Ġdark ened
umb ling
Ġpar alle
Ġli br
tt y
Ġdri ven
Ġam bul
Ġno ses
Ġbackpack er
Ġphoto s
Ġsto ve
Ġcan al
Ġcan yon
Ġfire fight
Ġtur quoise
Ġlif ting
Ġlif ted
Ġsa ying
Ġbox es
Ġoverloo ks
Ġspe ak
Ġmar athon
Ġhar nesses
Ġsing er
cor dion
Ġart ific
Ġcheer ing
Ġlog o
Ġcut out
Ġbut ton
Ġcarpet ed
Ġbottom s
Ġown ers
Ġtro phy
Ġtw ist
Ġmil k
Ġstroll ers
Ġac cordion
Ġblur red
Ġcheck ing
Ġz ip
Ġclown s
sp ort
Ġpractic es
Ġwarm ly
Ġgar age
Ġpig gy
ident ial
Ġpun ching
Ġcarri ed
Ġinter vie
Ġtight rope
wheel er
Ġchick ens
Ġexam ine
Ġcolle ge
Ġretur ns
Ġsprin ts
Ġpumpk ins
Ġevery where
Ġtran sport
Ġquarter back
Ġinterest ing
Ġoper ating
Ġattent ion
Ġtuxed os
Ġelectron ic
Ġvert ical
Ġbor der
Ġdang ling
Ġfurn iture
Ġhy drant
Ġbelong ings
Ġlacross e
Ġbackstro ke
Ġunivers ity
Ġflan nel
Ġpizz a
Ġeurope an
Ġprie st
Ġwatercra ft
Ġhosp ital
Ġrelig ious
Ġparalle l
Ġlibr ary
Ġambul ance
Ġartific ial
a la
b it
c am
d rop
e er
f low
i ver
j ust
l its
m ing
m ade
t hing
u sing
v ent
x ing
z ing
Ġ ?
end er
Ġw o
Ġb row
Ġs ar
Ġs und
Ġs ister
Ġin spe
it ch
Ġthe ater
re t
Ġd ach
Ġc ry
Ġc ups
Ġf resh
ir rel
at a
at ers
at ive
Ġr am
Ġr if
Ġr us
Ġst all
Ġbo ston
et er
Ġpla ced
Ġl im
ur ity
Ġpe ers
ard s
Ġn inj
Ġchi p
Ġbe ak
Ġbe lt
Ġro bo
Ġro mp
Ġco b
Ġsnow bank
Ġho und
ri al
Ġlo ck
Ġsk aters
Ġshirt ed
Ġfi st
Ġmo bile
Ġmo vie
Ġover pass
ic le
Ġpo lo
Ġpo pping
Ġra g
Ġback drop
Ġcar e
Ġyel ling
Ġher ding
Ġsp lits
Ġas king
Ġas ph
ap s
Ġre ce
Ġre mo
Ġfo c
Ġfo lded
Ġtra vers
Ġch op
Ġch unk
Ġcam ps
Ġso cks
Ġmountain ous
pp ers
Ġpu g
te st
Ġte les
Ġhill y
Ġski iers
Ġv il
Ġfen cing
Ġob sc
Ġperform ance
Ġcon test
Ġad just
Ġdan cers
Ġhigh way
Ġche cks
Ġha wa
Ġbat t
Ġbat ter
Ġpar ents
Ġbal let
us ed
Ġboard s
Ġguitar s
Ġguitar ist
Ġforest ed
Ġbear s
Ġpad s
ust rial
Ġsled s
Ġtr ump
Ġex hi
Ġnumb ers
Ġobstac les
Ġsa x
Ġce re
Ġmar ble
Ġjo gger
Ġspo ut
Ġsub urban
Ġsqu atting
Ġsqu irrel
Ġbre ed
Ġrain coat
Ġrais e
Ġdra in
Ġdra gging
Ġstra pped
Ġbow ls
Ġtack les
Ġev ening
Ġretrie ve
Ġlow er
Ġscen ery
Ġind ustrial
Ġcut e
Ġkn ife
Ġpadd ed
let on
Ġplat es
Ġamong st
ious ly
Ġtro ts
Ġvideo t
Ġgun s
Ġcla d
Ġpract ice
Ġac ro
Ġtoss ed
Ġent er
Ġgl ider
Ġtravel s
Ġext ended
Ġguard ing
Ġdirection s
Ġcras hes
Ġparticip ating
Ġsquirt ing
Ġju ice
Ġju ggling
Ġsail boat
Ġwas hing
Ġemer ging
Ġspid er
Ġpee king
Ġhorizon tal
Ġcelebr ating
min ton
Ġtile d
Ġpin ata
Ġdin ner
Ġtour ists
Ġwindsurf er
Ġgymna st
cl imb
gre en
Ġaim ing
Ġpot ato
Ġtele phone
Ġtele vision
Ġpret ending
Ġbagp ipes
Ġlaun ches
Ġsleeve less
Ġgarb age
nam ent
Ġpatter ned
Ġintera cting
Ġmagaz ines
stick s
Ġesc ala
Ġplan k
Ġshr ub
Ġbad minton
Ġbicyc ler
Ġmusc ular
Ġya wning
Ġfrolic s
Ġsec urity
Ġlabrad or
Ġextre me
Ġbulldo g
Ġske leton
Ġmustac he
Ġcomm un
Ġcobblest one
Ġcharact ers
tur ned
Ġpian o
Ġtransport ation
Ġdach shund
Ġram ps
Ġninj a
Ġrobo t
Ġasph alt
Ġchop sticks
Ġteles co
Ġhawa i
b s
b ing
b ag
b arrow
d ish
f or
g i
i que
j ump
m at
o wn
p ort
p ipe
p rised
r ide
t ain
w ed
Ġ rou
Ġ ig
Ġa ra
Ġa like
Ġa vo
Ġt et
Ġt ed
Ġt ee
Ġt ape
Ġo vers
Ġs y
Ġs acks
Ġp oo
Ġp ri
Ġp ress
Ġd y
Ġd itch
er by
Ġc ries
Ġm in
Ġm ain
Ġg en
Ġg as
Ġg na
Ġf ed
en se
id a
or ing
Ġth re
ra it
Ġl un
on ed
um er
ers a
Ġn ur
Ġred dish
Ġan g
Ġro tt
im med
Ġgra s
ile d
am erican
bo dy
Ġu se
Ġmo d
Ġmo ut
Ġgre et
to ps
Ġe m
Ġe agle
Ġpo kes
Ġpo tted
Ġra ck
Ġk itten
Ġk ilt
Ġback lit
Ġbu cking
Ġcl ings
Ġsp re
Ġsp an
Ġsur prised
Ġch alle
Ġcam o
Ġhand ing
Ġhead ed
Ġsun sh
te red
Ġte st
Ġun us
ie val
Ġski ps
sh aped
Ġv ine
ho re
Ġpur ses
Ġbase man
Ġperform ers
Ġfe athered
Ġtrack suit
Ġstri pe
Ġhor ns
Ġbat s
Ġcolor ing
Ġcouple s
Ġdri ed
Ġfla pping
shirt s
Ġste pping
Ġste ering
Ġve get
Ġca ut
Ġca ble
Ġsky sc
Ġpro p
we iler
Ġtrain s
Ġear rings
Ġdist orted
Ġsa iling
Ġstar ring
Ġseat tle
Ġstore s
Ġbox ers
bor n
Ġspe cial
Ġkayak ers
Ġdis k
Ġcart wheel
Ġwor ds
Ġpl u
Ġce iling
Ġsu cking
Ġcyc ling
Ġmar ch
Ġmar oon
Ġpolice men
Ġsn ar
Ġsn ack
Ġsn ap
Ġpaper work
Ġdra gon
Ġstra ps
sel y
Ġpat ches
Ġcre ating
Ġmusic ian
Ġstat ues
Ġboun ces
Ġmon ster
Ġfet ches
Ġcowbo ys
Ġcut ting
Ġclear ing
Ġblock ed
Ġfore head
Ġdrum mer
Ġfair y
Ġfair ground
Ġmarket place
Ġpet s
Ġwr itten
whe eled
Ġcla us
Ġmed ieval
Ġtow ed
Ġrefle cting
Ġcirc uit
Ġhot el
Ġshovel s
Ġstart s
Ġeye b
Ġser ve
Ġser ious
Ġnew born
Ġembra cing
Ġshar ing
Ġbra ce
Ġlist ens
inis hed
Ġlu sh
Ġflor ida
Ġcontain ing
Ġexam ining
Ġapple s
Ġfeather s
Ġsla lo
Ġke ep
Ġtar p
Ġloc ated
Ġres idential
Ġbagp ipe
Ġmeet ing
Ġmagaz ine
Ġsup er
Ġdalm at
Ġdalm ation
Ġclean ing
Ġpy ram
Ġwatermelo n
Ġasc ending
Ġadm ire
Ġpoun ces
Ġpassen gers
Ġrust y
Ġsubmer ged
Ġtuss le
Ġtru cks
Ġdomin o
Ġbean ie
Ġoutc ro
Ġseas hore
cam era
Ġcamps ite
Ġvil lage
Ġtrump et
Ġexhi bit
Ġsax o
Ġacro bat
Ġescala tor
Ġtelesco pe
Ġhawai ian
Ġara b
Ġted dy
Ġchalle ng
Ġunus ual
Ġskysc ra
Ġpyram id
a el
b ones
c c
e m
e x
f y
f ly
g ue
g gs
h oops
i ld
i lor
k le
l ined
m es
m ony
n et
n as
o dle
p ie
p rin
r al
s ure
t i
v ol
w ear
Ġ el
Ġ ill
Ġa band
Ġa wning
nd le
in t
st ore
Ġt il
Ġt rench
Ġb itten
Ġo x
Ġo ar
Ġo cc
Ġs wo
Ġs ear
Ġs ite
Ġs am
Ġin stru
Ġin vol
Ġd j
er ial
er ns
le e
Ġm er
Ġm ick
Ġg la
Ġf ling
Ġf rench
Ġh ides
id ed
Ġbo n
rou d
Ġplay ful
Ġj ar
Ġj ud
Ġth ick
Ġl ining
Ġsh ades
um ble
hi ft
ple d
ple s
ple ts
itt y
Ġpe ach
Ġpe aks
Ġwater y
Ġba le
Ġn umer
Ġan kle
Ġbe gging
Ġbe ret
Ġco p
Ġco nd
Ġco ast
Ġgra du
Ġho pping
Ġsm elling
Ġmo on
Ġmo ust
se en
ain s
Ġover we
ic tor
Ġla v
Ġla mp
Ġhe ll
Ġup ward
Ġk itty
Ġcar ving
Ġcar rier
Ġbu g
Ġbu y
Ġair port
Ġsom thing
Ġsom ersa
ap es
Ġre sc
Ġre ally
Ġre cent
ick er
Ġne ed
Ġtra y
Ġtra iling
ran ce
Ġch ubby
Ġta gs
Ġso aking
Ġso aring
li es
Ġjack s
Ġhand bag
Ġgo ndo
oot h
Ġse es
Ġse ating
Ġpu ffy
ill s
ill ar
Ġte aching
Ġun f
Ġun seen
Ġhel lo
Ġblo ss
Ġpa il
Ġsc o
Ġv ictor
Ġbasket s
Ġhair cut
Ġpur ch
Ġpur su
ph ard
Ġcon gre
Ġclot hed
Ġtre ads
Ġshe phard
Ġri val
Ġstri king
Ġbat ting
Ġcolor fully
ces s
Ġno te
Ġno odle
Ġste ers
Ġde fla
Ġlea gue
Ġbackpack ing
Ġcliff s
Ġcross bones
Ġcan v
Ġsky d
Ġbri ndle
Ġtur keys
Ġwheel barrow
Ġbrid al
Ġpoin ty
Ġteen s
Ġey ed
Ġex cept
Ġsa le
Ġatt ra
Ġrail s
Ġstore front
Ġcor gi
Ġmat erial
Ġcart whe
Ġtong ues
Ġcra ck
Ġcra ft
Ġcra sh
Ġor der
Ġme x
Ġspo on
Ġspr ing
Ġapp ar
Ġstun ts
Ġstru ggle
Ġhorses ho
Ġslo pes
Ġcigar ettes
Ġform ally
Ġbook store
Ġev il
Ġban ners
Ġgather s
Ġgym nas
Ġcre v
Ġcanoe ing
Ġpie ces
band s
iz ing
Ġhome made
Ġdig ital
Ġslee ves
Ġspeed ing
Ġbut t
ung es
Ġwr ites
Ġpack ed
Ġcomp an
Ġcast le
Ġtw in
Ġmotorbi kes
Ġpier cing
Ġoutstre ached
Ġsum m
Ġcol um
Ġcheck ed
Ġfra med
Ġent ert
Ġmach ines
Ġbeg inning
Ġparticip ates
Ġju ggles
Ġnew ly
Ġparasa il
Ġparasa ils
Ġdro plets
Ġbou quet
Ġobser ving
Ġprin ted
Ġgr ins
Ġspark ler
Ġflam ing
Ġattack ing
Ġathlet es
Ġfest ive
Ġaer o
Ġpret end
Ġenclo sure
Ġfle e
Ġres ort
Ġrecor d
Ġdoll ar
Ġtoo th
Ġpatter n
Ġintera ct
Ġpumpk in
Ġexpression s
Ġsup erman
Ġparachut ing
Ġsad dle
Ġelev ator
Ġlett ers
Ġva ul
Ġmel ting
Ġja gged
Ġposs ession
Ġlip stick
Ġbutter fly
Ġchains aw
Ġgymnastic s
fi eld
Ġoverh ang
Ġlass o
Ġgallo ping
Ġspons ored
Ġsold ier
Ġfirefight er
Ġcere mony
Ġcommun ity
Ġlun ch
Ġslalo m
Ġoutcro pping
Ġchalleng ing
pie ce
Ġswo o
Ġmick ey
Ġoverwe ight
Ġresc ue
Ġrecent ly
Ġcongre g
Ġdefla ted
Ġgymnas ium
a ct
b a
b ird
b rush
c a
c la
c ier
d ed
d eep
e es
f lo
f light
i et
i ving
i ped
l ican
l ish
l ider
p an
p ers
u c
u ra
u ch
v y
w ater
y er
y ond
z ag
Ġ (
Ġ if
Ġ que
Ġa b
Ġa wa
in a
ar oo
st al
Ġt ap
Ġt umbling
Ġb ark
Ġo dd
Ġs al
Ġs ight
Ġs ong
Ġs elf
Ġin se
Ġin vest
re nt
Ġp ens
Ġp illar
Ġd ren
er n
er ic
ro be
Ġc rest
Ġc ust
Ġm ing
Ġm or
Ġm ap
is s
is on
is per
Ġg rown
Ġg am
Ġg ig
Ġf it
Ġf rown
Ġf rying
Ġf erry
Ġf illing
Ġh un
Ġst ack
Ġst rings
Ġst oop
en ian
Ġwh isper
es us
et ti
Ġto e
Ġplay house
Ġj esus
Ġth an
Ġl ime
Ġl unges
ch an
ch ael
Ġsh ines
Ġsh ining
Ġsh iny
um m
no on
Ġpe lican
Ġwater way
Ġba ss
Ġn a
Ġn ud
ver ing
Ġan ge
Ġbe yond
im on
Ġsnow man
il li
am an
ri ed
el led
Ġsm ooth
ad y
Ġbi b
Ġu sed
Ġsw ans
Ġsw amp
Ġe as
ic es
Ġla mb
Ġle ns
Ġhe ar
Ġup per
Ġra pp
Ġra bb
Ġk ang
Ġk ind
Ġk imon
Ġback ward
Ġfield s
Ġrock ing
Ġgreen ery
Ġgreen house
Ġbu dd
Ġbu ggy
Ġbu ilt
Ġstre wn
Ġsp ir
Ġre cl
Ġfo g
Ġch ar
Ġch ange
Ġcam cor
Ġoff ering
Ġta x
Ġta ils
Ġso und
Ġso ars
Ġmountain eer
ent ly
Ġgo t
Ġgo ats
Ġside car
Ġse qu
Ġse eds
Ġcrowd s
ee ps
Ġte aches
Ġsl ing
Ġun ion
Ġun ique
ie lding
Ġfootball ers
Ġsc ra
Ġsc ant
Ġmu ch
Ġhair y
Ġmotor ized
Ġarm enian
Ġfen cers
Ġper f
Ġper ched
Ġper io
Ġfe eds
Ġflo od
Ġgu ide
qu id
Ġdi aper
Ġcom f
Ġtre k
Ġwi lder
Ġthem ed
Ġstri pped
Ġche ers
Ġfli pped
Ġbat tle
Ġpar ag
Ġwet s
Ġli quid
ac he
Ġcoll ide
Ġdri ft
Ġfla ps
us hi
Ġste am
Ġwho se
co ura
Ġwrest les
Ġfire man
ation al
Ġpre tty
Ġsurfboard er
Ġen er
Ġtrail s
Ġear ring
Ġear phones
Ġpi lo
Ġcow girl
Ġsa ils
Ġcur tain
Ġcur rent
Ġcor ds
Ġoverloo k
Ġret re
Ġdes ign
Ġwor ld
Ġcompet it
Ġhar bor
Ġmas cot
Ġmakes hift
Ġcell phones
Ġsqu ats
Ġstru ggles
Ġhoo ping
Ġcano py
Ġbre aks
Ġprepar e
Ġrain y
Ġwaterfall s
Ġstra p
Ġbow ler
Ġter riers
Ġcre ature
Ġqu ad
Ġpaint ball
Ġmon itor
ado ws
Ġcont roll
Ġhal ter
Ġbath robe
Ġdun es
Ġdun king
Ġpier ced
Ġmi chael
Ġnewsp apers
Ġformation s
que stri
Ġrub s
Ġent rance
Ġprof ile
Ġcirc ular
Ġgl ides
Ġnat ure
Ġguard s
Ġcomput ers
Ġstraw ber
Ġpost ers
Ġsquirt s
Ġser ies
Ġclass ic
Ġpun k
oc ide
Ġbra ids
Ġchee ks
Ġtut us
Ġraf ts
Ġdef ending
Ġmess y
Ġ1 9
Ġport rait
Ġgest ure
Ġcelebr ate
Ġdin er
Ġtour nament
Ġpow der
Ġwindsurf ing
dress ed
Ġspar ring
Ġconvers ation
Ġbooth s
Ġsupp ort
Ġspot light
Ġloc ation
Ġcamer aman
Ġindivid ual
Ġgaz ing
Ġgaz es
Ġcomple te
com es
Ġcal f
Ġcal led
Ġdump s
Ġgoo se
Ġgoo fy
Ġtool s
Ġrep els
Ġwatermelo ns
Ġfashion ed
Ġapart ment
Ġmist y
Ġdolph in
Ġdolph ins
Ġexerc ise
Ġtwirl ing
Ġmaneu vers
Ġnavig ates
Ġbump y
Ġham bur
Ġconf etti
Ġscream s
Ġexplo sion
Ġpresent ation
Ġblindfo lded
Ġoll ie
Ġfin ish
Ġmoss y
Ġtwist ing
flow ers
Ġlock ers
Ġcare fully
Ġshrub s
Ġgen ocide
Ġgna wing
Ġrott weiler
Ġcaut ion
Ġeyeb rows
Ġbrace let
Ġskyscra per
Ġmer ch
Ġgla cier
Ġnumer ous
Ġgradu ation
Ġmoust ache
Ġjacks on
Ġgondo la
Ġcanv as
Ġcartwhe els
Ġsumm it
Ġentert ain
Ġinse ct
Ġinvest ig
Ġdren ched
Ġcust om
Ġmor ning
Ġswamp y
Ġkang aroo
Ġcamcor der
Ġscant ily
Ġwilder ness
questri an
Ġhambur gers
a irl
c on
d ile
d ium
e ps
g a
g un
g ant
g roud
h ap
i b
i or
i el
i ves
i ps
i pping
l ts
l ick
n ate
n ie
o lo
p it
p ark
r id
s hes
s wing
s men
s lee
t ie
u is
u la
u ss
u ble
u ally
v et
v ag
v iz
Ġ &
Ġ )
Ġ ing
Ġ ir
Ġa id
Ġa ward
Ġa do
Ġa ler
Ġa ctive
Ġa cting
ar es
st ing
Ġt im
Ġt ink
Ġt ies
Ġt umble
art h
Ġw ol
Ġw icker
Ġb it
Ġb ru
Ġo ly
Ġs in
Ġs ash
it ish
Ġp om
Ġp on
Ġp ran
Ġp ist
Ġd ad
Ġd ining
Ġd erby
er bell
an ut
an as
an ging
Ġm es
Ġm ount
Ġg low
Ġg ey
Ġg ated
Ġdo ts
Ġdo uble
la ps
Ġf al
Ġf ell
Ġh ump
Ġh ad
Ġh ig
Ġh ung
ck led
Ġis ra
Ġis land
Ġr v
ld s
Ġst a
Ġst ay
Ġwh om
Ġbo a
Ġbo ws
Ġpla cing
and ise
or y
or ter
Ġj eeps
ra ised
ra vag
Ġl ant
ch o
Ġsh adows
Ġrun way
Ġat m
itt ed
Ġpe anut
Ġwater ing
Ġba les
Ġn ip
Ġan c
Ġbe at
Ġbe ers
Ġbe aded
Ġbe comes
Ġco al
Ġco tt
Ġbrown ish
Ġsnow s
Ġsnow ing
Ġho vering
il ight
Ġbl uff
am bo
Ġfro g
Ġfro lick
ri ger
Ġlo ll
Ġlo ading
Ġsm ear
Ġblue je
ad or
bo y
Ġu s
Ġu nd
Ġfi nd
Ġdown to
Ġmo re
Ġmo der
Ġball er
Ġlitt er
ain ed
Ġover coat
Ġrid ding
board er
Ġe ggs
Ġe questrian
Ġe arth
Ġla id
Ġle d
Ġle gg
Ġle gged
Ġhe ight
Ġpo king
Ġpo cket
Ġpo sed
Ġpo dium
ks ha
Ġup on
Ġup set
Ġup turned
Ġup raised
Ġcar ring
Ġher d
Ġcl ut
Ġcl inging
Ġnear ly
Ġstre aks
Ġsp lit
Ġfor t
Ġre c
Ġre al
Ġre ve
Ġre cept
Ġch atting
Ġch airl
Ġoff ers
Ġso ap
Ġsome body
Ġjack ed
Ġhand ed
Ġhand ic
Ġhand gun
Ġse al
Ġse wing
Ġpu gs
Ġhead ing
Ġhead set
Ġhi ps
Ġsoc ial
Ġclo ver
Ġclo ses
Ġclo sely
Ġte acher
Ġfoot prin
Ġun hap
Ġpa ying
Ġsc ru
Ġsc ary
Ġv ac
Ġdr illing
Ġroad way
gg an
ris e
Ġob je
Ġflo ors
do g
Ġunder ground
ne cted
Ġgu iding
Ġcon cent
Ġcon front
Ġcon nected
Ġcom bat
Ġsign al
Ġad or
Ġshe lt
Ġstri ke
Ġstri ps
Ġche ss
Ġha wk
Ġpar a
Ġpar ent
Ġpar lor
Ġflow ing
Ġbr inging
Ġbr itish
Ġcap es
ndo gs
up ied
Ġwhe n
co dile
Ġlea se
Ġcollar ed
Ġsto pped
Ġcan e
Ġboard er
Ġafter noon
Ġbrick s
Ġsha wl
Ġtur b
Ġbed room
Ġpast a
Ġpast ure
ject ed
Ġpre y
Ġsurfboard s
Ġen coura
Ġsled ge
Ġwin t
Ġpart ly
Ġsa ber
Ġsa ilor
Ġcor ndogs
Ġmat s
Ġwor n
Ġor nam
Ġor nate
Ġpl ushi
Ġmar x
Ġjo g
Ġme an
Ġme chan
Ġsqu in
Ġdock ed
Ġbre ath
Ġbre eds
Ġpit ches
Ġwaterf ront
Ġcigar s
Ġview er
mb ling
Ġdra mat
Ġstra ddle
Ġharness ed
Ġref riger
Ġstructure s
Ġinfla ted
Ġkne el
Ġbull s
Ġele gant
Ġart ists
Ġqu iet
str ide
Ġtat oo
Ġglo ved
Ġscoot ers
Ġprote ct
Ġprote ction
Ġleg os
Ġclear s
out s
Ġcover ings
Ġwind ing
Ġspeed o
Ġfil ms
Ġdispla ying
Ġdispla ys
Ġwait er
Ġint ently
Ġdun ks
Ġdire ct
Ġtw ig
Ġtw ilight
Ġpainting s
Ġmed als
Ġpul ley
Ġwakeboard s
Ġmil ksha
Ġac c
Ġac com
Ġwe a
Ġwe b
Ġcheerle ading
Ġround s
Ġbro ad
Ġcand le
Ġwire s
Ġ2 3
Ġ2 8
Ġcol umn
Ġdecor ative
Ġfra mes
Ġrub bing
Ġz oo
Ġz ig
Ġneckla ces
Ġinc oming
Ġext ends
Ġext ravag
Ġappro ach
Ġwra pping
Ġleaf less
Ġsiz e
Ġsusp enders
Ġcamp us
ous ine
Ġpun ches
Ġjet ty
Ġdro ps
Ġobser ve
Ġobser ved
Ġphotographer s
Ġgroom smen
Ġdev il
Ġti ps
Ġti ara
Ġgr im
Ġdef enders
Ġpir ates
Ġpump s
Ġcas ual
Ġhuddle d
Ġ1 3
Ġcro quet
Ġcro codile
Ġpair s
Ġsheet s
Ġalley way
Ġconcer ned
Ġwindsurf s
Ġaim s
Ġmom ent
Ġru ss
Ġstool s
Ġconvers e
Ġconvers ing
Ġeng ine
Ġke eps
Ġretur n
Ġgaz e
Ġpres ents
ass e
Ġprodu ct
Ġprodu cts
Ġpedestri an
Ġdon ut
Ġparachut es
Ġtran s
Ġmis ses
Ġmini ature
Ġfat ig
Ġspi ky
Ġinterest ed
Ġva ult
Ġmaneu ver
Ġsell s
Ġmass age
Ġmass ive
Ġshel ter
Ġdep ic
cot ch
Ġscream ing
Ġcook ie
Ġscrat ches
Ġscrat ching
Ġsquee zing
Ġmitt ens
Ġhops cotch
Ġlear ning
Ġintervie ws
Ġwo ven
Ġsund ress
Ġinspe cting
Ġcry stal
Ġfresh ly
Ġlim ousine
Ġfoc us
Ġtravers es
Ġadjust ing
Ġwashing ton
climb ing
Ġig loo
Ġavo id
Ġtet hered
Ġovers ized
Ġpoo h
Ġdy ed
Ġthre w
Ġmod el
Ġsunsh ade
Ġbats man
Ġplu sh
Ġsnar ling
Ġdalmat ian
Ġsaxo phone
Ġacrobat ic
Ġaband oned
Ġinstru ctor
Ġbon net
Ġsomersa ult
Ġneed le
Ġunf inished
Ġvictor y
Ġpursu ed
Ġmex ican
Ġcolum ns
Ġcongreg ate
cla d
Ġgam es
Ġna ils
Ġnud e
Ġange ls
Ġlamb s
Ġrabb it
Ġperio d
Ġstrawber ry
Ġmerch andise
Ġing round
Ġir ish
Ġaler t
Ġtink erbell
Ġwol f
Ġoly mp
Ġgey ser
Ġhig her
Ġlant erns
Ġloll ip
Ġdownto wn
Ġmoder n
Ġlegg ings
Ġrecept ion
Ġchairl ift
Ġfootprin ts
Ġunhap py
Ġscru ffy
Ġobje cts
Ġconcent r
Ġshelt ie
Ġplushi e
Ġrefriger ator
Ġmilksha ke
Ġaccom pan
b in
b re
b al
b lo
b ear
b rown
d e
e cut
g an
g les
h y
h irt
h us
h oop
k no
k ment
l im
l ying
m or
p ro
r un
s hing
s urf
t an
t ine
t ely
u itt
v i
v ine
w ra
w ls
y ro
y li
z y
z er
z ards
Ġ 7
Ġ ut
Ġ ump
Ġ eth
Ġ key
Ġa gg
Ġa co
Ġa ust
Ġa wk
Ġa wards
Ġa stride
nd red
in o
in as
in ste
ar an
st y
st ed
st ab
Ġt and
Ġt ide
art ly
art ment
Ġw re
Ġw is
Ġw ill
Ġw ere
Ġw ielding
Ġb ree
Ġb illow
Ġb ern
Ġs ink
Ġs ud
it ors
re s
Ġp le
Ġp ay
Ġp ris
Ġd ing
Ġd as
Ġd eter
Ġd umm
an ces
an kment
Ġc all
le ts
le gged
Ġm ard
is er
is hed
Ġg a
Ġg or
Ġg ho
Ġg arter
Ġg ift
Ġdo d
la p
Ġf ile
Ġf aded
ck y
al ks
un t
Ġr ises
Ġman ic
Ġman ne
lo n
Ġst r
Ġst ro
Ġst ir
Ġst ates
Ġst ained
Ġwh arf
Ġwh ales
Ġbo dies
Ġto bo
rou s
Ġpla ces
Ġj ug
ra y
Ġl ie
on ge
ut ing
Ġwhite water
Ġsh aded
Ġsh apes
Ġsh ady
Ġblack top
hi re
hi gh
Ġstand ard
Ġpe aking
Ġpe ering
Ġba mb
Ġn ine
Ġbe ll
Ġbe lts
Ġro t
Ġco aching
Ġgra p
Ġho vers
Ġho pper
ri b
Ġlo bby
Ġlo uis
el vet
Ġsm artly
Ġfi x
Ġfi ghts
Ġball pla
ke ep
Ġlitt ered
Ġsw ung
ain ing
Ġover turned
Ġe ff
Ġe jected
Ġe inste
Ġe stab
ic les
Ġla ck
Ġla dle
Ġle cture
Ġhe ron
Ġpo or
Ġpo lit
Ġpo ised
Ġup wards
Ġra vine
Ġcar ying
Ġcar go
Ġgreen ish
Ġbu ff
Ġbu ses
Ġgrou cho
Ġgroup s
ren a
Ġcl ust
ate e
Ġnear s
Ġstre aked
Ġsp ig
Ġsp onge
ap pled
Ġre cre
Ġre ached
Ġre eds
Ġskate park
Ġclimb ed
Ġtra m
Ġch at
Ġch aps
Ġsho ts
Ġsho ppers
Ġta gged
Ġta bby
Ġso l
Ġso ur
li ghts
ool ing
ul f
Ġgo atee
Ġfa uc
Ġpu ff
Ġdirt bi
ill er
ig ator
Ġhead wra
rowd ed
Ġhi p
Ġbui ld
Ġsun bat
Ġsun rise
Ġar row
Ġar ched
Ġte a
Ġun o
Ġun ited
Ġun ison
Ġun kno
Ġma ster
Ġblo od
Ġface pain
pe ach
Ġski pping
Ġv ending
Ġv ast
Ġv uitt
Ġv elvet
Ġhair style
Ġfen ces
ors hi
Ġroad side
Ġbar ing
Ġbar es
Ġbar ed
Ġbar ric
Ġbar ely
Ġbar bed
Ġbar riers
Ġrace way
Ġsit ing
Ġwalk er
Ġwalk ed
Ġfe at
Ġfe ild
Ġflo ored
ne cked
Ġcon s
Ġcon temp
qu ins
Ġfrisb ees
Ġdi apers
ru p
Ġhu gged
Ġhu ndred
Ġwi pes
Ġshe ll
Ġthem e
Ġstri py
Ġche f
Ġbat on
Ġli ber
ac y
ac es
ac ts
Ġlook ed
Ġbal ck
Ġbal ding
Ġbr ings
tt er
tt ish
Ġsuit case
Ġriver bank
Ġam az
Ġam eric
Ġno vel
Ġste er
Ġste el
Ġve il
Ġkick box
Ġlea ve
Ġca using
Ġca bin
Ġcan on
Ġcan ad
Ġnight cl
Ġtur ban
Ġtur tle
Ġpro m
Ġpro ps
Ġpro pped
Ġbed sp
Ġpupp et
Ġen vi
Ġtrail er
ust ic
Ġall igator
Ġwin ner
Ġwin nie
Ġear ly
Ġtr im
Ġex ecut
Ġshallow s
Ġsle igh
Ġcur led
Ġcur ved
Ġcur ious
Ġcur iously
Ġcur vy
Ġmet s
Ġmet er
Ġcor d
Ġcor rid
Ġmat t
sc ent
Ġstream ers
Ġband aged
Ġdes ks
Ġcra b
Ġcra mp
Ġcra cked
Ġor gan
Ġmar ks
Ġmar ches
Ġjo in
Ġme as
Ġme mor
Ġpass ed
Ġsqu at
Ġstru ggling
Ġbre ast
Ġpuddle s
Ġrac ed
Ġmark ers
Ġsn u
Ġdra gged
Ġwaters ide
Ġshow girl
Ġpat ient
Ġmask ed
Ġpile d
Ġpile s
Ġtri ang
Ġban ks
Ġban anas
Ġsweatshirt s
Ġraft ers
Ġal b
Ġbull fight
Ġart work
Ġflower ing
Ġqu ilt
Ġblanket s
arm acy
Ġtou ched
hill s
Ġbalan ced
Ġmon k
Ġph armacy
Ġcut s
Ġsheep dog
Ġlap tops
Ġcont ra
Ġcont ents
Ġfil m
Ġbeaut y
Ġpra ying
ron ts
Ġwr ink
Ġhap pen
Ġrow ers
Ġchain ed
Ġwatersk is
Ġwatersk ies
Ġbur n
Ġpick et
Ġpick up
Ġdire cts
Ġbarefoot ed
Ġfloat ation
Ġdisplay ed
Ġcla y
Ġmi xing
Ġac ce
Ġwe im
Ġround ing
Ġfly er
Ġaud itor
Ġcol laps
Ġwork out
Ġz om
Ġent ering
Ġent hus
ens ive
Ġemb ankment
Ġterra ce
Ġbeg in
Ġinc ense
Ġsee ms
Ġcounter top
Ġim peach
Ġser ving
Ġclass room
Ġsiz es
Ġsoon er
Ġembra ces
Ġcorn ers
Ġparasa iler
Ġtho se
Ġic icle
Ġwas hes
Ġbou lders
pt ion
Ġnot es
Ġprotest ers
Ġgr inning
Ġdef ends
Ġcas c
Ġcas h
Ġcas ually
Ġcas ino
Ġhum ming
Ġspark ling
Ġflam boy
Ġ1 2
Ġsli pper
Ġport able
Ġcro c
Ġcent iped
Ġgest uring
Ġhow ling
Ġfig ures
Ġcelebr ates
Ġpin ned
Ġdin ers
Ġpaj ama
Ġpillow s
Ġroof top
Ġsnowmo b
Ġwild flowers
Ġteamm ates
Ġrollersk ates
Ġsla cks
Ġru ins
Ġpol ar
Ġspar ks
Ġscr ub
Ġconvers ations
Ġpret ends
Ġeng age
Ġeng ulf
Ġsupp lies
Ġelectric al
Ġfle x
Ġyo ga
Ġloc al
Ġretur ning
Ġoppon ents
Ġeleph ants
Ġadvertise ments
Ġlaun ch
Ġrecor ding
Ġrecor ds
Ġcomple tely
Ġwig s
Ġtoile ts
Ġloun ging
Ġhusk ies
Ġprodu ce
Ġsnowmobile s
Ġdon keys
Ġhut s
Ġbrother s
Ġdump ster
Ġmis sing
Ġspi ked
hand ed
Ġni ke
Ġni ps
Ġrep elling
Ġelev ation
Ġtuxed o
Ġact iv
Ġbroom s
Ġshr ine
Ġlett er
Ġasc ends
Ġchin a
Ġgown s
Ġadm iring
Ġdandelion s
stri ped
Ġpoun cing
Ġcr ate
Ġpops icle
Ġarch way
Ġexerc ises
Ġtwirl s
Ġnavig ating
Ġwrist bands
Ġham mer
Ġtor n
Ġreg ister
Ġdep artment
Ġassist ing
Ġassist ance
Ġdemonstr ating
Ġblindfo lds
Ġoll ies
Ġlion ess
Ġcutout s
Ġpiggy back
Ġsar is
Ġsund own
Ġrif le
Ġrif les
Ġrus hes
Ġrus hing
Ġlim o
Ġrece ives
Ġobsc ured
Ġbatt les
Ġbatt ling
Ġvideot aped
Ġrou te
Ġrou tine
Ġpri ze
Ġpri zes
Ġpress es
Ġnur ses
Ġmout hed
Ġspre ading
Ġspre ads
Ġspan iel
Ġveget ation
Ġveget able
Ġadmire s
ral ian
Ġtil ted
Ġsear ching
Ġinvol ving
Ġfling s
Ġjud ge
Ġcond oms
Ġsees aw
Ġsco ttish
Ġpurch as
Ġattra ctive
Ġcrack er
Ġhorsesho es
Ġcrev asse
Ġcompan y
Ġflee ce
Ġvaul ting
Ġswoo ps
Ġsal on
Ġgig olo
Ġfrown ing
Ġwhisper ing
Ġspir al
Ġchar ging
Ġtax i
Ġsequ ined
Ġscra mbling
Ġflood ed
Ġwets uits
Ġretre iver
Ġcompetit ive
Ġcontroll er
Ġtim es
Ġbru shes
Ġmes h
Ġisra el
Ġsta ff
Ġanc ient
Ġcott on
Ġblueje ans
Ġund ers
Ġballer inas
Ġsocial izing
Ġturb ans
Ġwint ry
Ġmechan ical
Ġdramat ically
Ġdirect ly
Ġextravag ant
Ġruss ell
Ġfatig ues
Ġdepic ting
Ġbonnet s
Ġlollip op
pro of
Ġeth nic
Ġaco ustic
Ġaust ralian
Ġawk ward
Ġbree ze
Ġbillow ing
Ġbern ard
Ġsud s
Ġpris on
Ġdumm y
Ġgho st
Ġmanic ured
Ġtobo ggan
Ġbamb oo
keep er
Ġeinste in
Ġpolit ical
Ġspig ot
Ġfauc et
Ġunkno wn
Ġvuitt on
Ġbarric ade
Ġliber ty
Ġnightcl ub
Ġbedsp read
Ġexecut es
Ġcorrid or
Ġpatient ly
Ġauditor ium
Ġhumming bird
Ġflamboy ant
Ġcentiped e
' t
a h
a cing
a ging
b u
b ee
b ie
b ust
b ster
c d
c art
c rack
c ast
c ility
c rowded
e f
e ers
f ro
f all
f ts
f ting
g ear
g rown
g way
g led
g und
g iz
g ical
h t
h or
h ats
i ing
i ghts
k art
m ple
m ined
m ely
n ch
n ut
n gh
n na
o y
o ck
o dy
o bile
o late
p ants
p od
s ized
t r
t in
t te
t ured
u age
v or
v il
w er
w om
w led
w ire
w ise
y al
z ily
Ġ -
Ġ 9
Ġ x
Ġ ur
Ġ ver
Ġ ign
Ġ rena
Ġa x
Ġa is
Ġa ff
Ġa mp
Ġa llow
Ġa stro
ar i
ar n
ar ium
st s
st ack
st orm
st ance
Ġt ear
Ġt ired
Ġt ip
art ers
Ġw oo
Ġw ool
Ġw are
Ġw ife
Ġw orshi
Ġb um
he m
he tt
he ater
Ġo u
Ġo re
Ġo ur
Ġo ars
Ġo wl
Ġs ack
Ġs ill
Ġs ig
Ġs orts
Ġs veral
Ġs ym
Ġin k
Ġin form
it h
it z
it ies
it heater
Ġthe r
Ġp al
Ġp ear
Ġp low
Ġp ins
Ġp ane
Ġp ride
Ġd am
Ġd umb
Ġd ug
Ġd av
er ce
an ke
an se
ro t
Ġc el
Ġc iv
Ġc ert
Ġc yli
Ġc rib
Ġc ooling
le nt
le ap
Ġm r
Ġm ad
Ġm ul
Ġm eat
Ġm ime
Ġm itten
Ġm ambo
Ġm cd
Ġg on
Ġg ap
Ġg ates
Ġg rin
Ġg yro
Ġdo ve
Ġdo ne
Ġdo dge
Ġdo me
Ġon ward
la nder
la mp
la ma
Ġf re
Ġf er
Ġf ill
Ġf ries
Ġf inished
Ġh om
Ġh ide
ir ie
at ch
at us
al ia
Ġdog house
Ġr ad
Ġr und
Ġr ise
Ġr ising
Ġst ate
Ġst ee
Ġst ony
Ġst acks
Ġst ride
en na
en nel
en ger
en act
Ġwh it
Ġwh ack
om obile
Ġbo ut
et a
Ġto pped
Ġto ast
Ġpla ins
and ex
wn s
or a
or d
or ugh
Ġj unk
Ġth orugh
ra se
ra cial
Ġl ang
Ġl lama
Ġy anke
ed ience
on al
ch ie
ch und
ch os
Ġsh ut
Ġsh red
Ġsh ack
Ġsh ine
Ġsh ipping
um in
Ġbla zing
oun ts
gh an
itt i
itt er
irt s
Ġpe bble
Ġpe bbles
Ġba dge
Ġn er
Ġn on
Ġn ame
Ġn uzz
Ġchi li
Ġred bull
Ġyoung sters
Ġan y
Ġbe ating
Ġbe ca
Ġro m
Ġro ver
Ġro ses
Ġro ds
Ġro yal
Ġco ck
Ġco ts
Ġco pper
Ġco lander
im ate
im ent
Ġgra f
Ġgra sp
Ġgra zes
Ġho pes
Ġho lly
Ġho using
Ġbl ues
ri ght
Ġlo ad
Ġlo dge
Ġlo cking
Ġlo cked
Ġlo lly
Ġlo aded
Ġlo bster
Ġlo ngh
Ġsm ell
bo l
bo tt
bo ats
Ġbi plane
Ġdogs led
Ġgrass es
Ġsk ills
Ġu lt
Ġfi ery
Ġfi xing
Ġfi erce
Ġdown ward
Ġmo p
Ġmo s
Ġmo ck
Ġmo ped
Ġmo wed
ke box
ve lo
se iling
Ġsw irl
Ġsw arm
Ġover grown
Ġe ver
Ġe ast
Ġe gre
Ġpers pe
Ġperson s
Ġperson nel
Ġloo p
Ġloo se
Ġla w
Ġla te
Ġla ps
Ġla und
Ġla go
Ġla den
Ġle mon
Ġhe ro
Ġhe ard
Ġhe nna
Ġpo em
Ġup right
Ġra ging
Ġra gged
Ġra iled
Ġk ennel
as hes
as ion
Ġback b
Ġback ed
Ġback groud
Ġrock er
Ġcar ves
Ġcar ved
Ġcar ous
Ġby stand
Ġbu d
Ġbu st
Ġbu ying
Ġher ds
ren ce
Ġcl i
Ġsp in
Ġsp el
Ġsp ee
Ġsp ag
Ġsp ell
Ġsp illed
Ġmen u
Ġmen us
Ġbeach go
ap ing
ng th
Ġre le
Ġre co
Ġre vie
Ġre ind
Ġre acts
Ġre enact
Ġdress er
ink y
ood le
Ġother wise
Ġch ats
Ġcam per
Ġsho cked
Ġsho uting
Ġoff stage
Ġso x
Ġwa king
Ġwa ste
Ġmountain eers
li p
Ġgo d
Ġgo th
Ġfa cility
Ġfa vor
pp ling
pp ery
Ġse par
Ġse gway
ig an
Ġhead lights
Ġsand al
Ġsand box
Ġclo sing
te en
Ġte xt
Ġte mple
Ġfoot br
Ġfoot hills
dy nam
Ġblo wn
Ġtan gled
sh ot
Ġsc uff
Ġsc outs
Ġbas es
Ġmu ff
Ġv w
Ġv amp
Ġv int
Ġmotor boat
Ġarm bands
Ġdr ill
Ġit al
Ġthat ched
Ġbasketball s
Ġi ron
Ġi pod
gg ers
Ġbar b
Ġbar ber
Ġgrey ish
Ġleap ed
Ġleap fro
Ġob edience
Ġbase ment
Ġfe ature
Ġgu ll
Ġgu ided
Ġcon fe
Ġdi p
Ġdi v
Ġcom ic
ak er
Ġhu s
Ġad v
Ġdan e
Ġhigh land
Ġtre ks
Ġwi ping
Ġshe per
Ġshe lf
Ġstri kes
Ġche ered
Ġche ese
Ġdark er
Ġhor n
Ġfl u
Ġfl ung
Ġbat he
Ġpar rot
Ġli vest
Ġli zards
Ġcoll iding
Ġbr and
tt ers
tt ies
Ġdri vers
Ġfla iling
Ġfla sh
Ġag es
Ġam ish
Ġam used
Ġcap tured
dd ing
dd ling
Ġkick er
Ġwhe at
Ġde b
Ġde c
Ġde velo
Ġopen ed
co aster
Ġfight er
Ġfight ers
Ġset ter
Ġboo t
Ġcliff side
Ġsto ck
Ġbody board
Ġca v
Ġlight er
Ġlight house
Ġrest ara
Ġfire s
Ġfire men
Ġsha ke
Ġtur key
ag er
Ġbed s
Ġwheel ers
ist a
we red
Ġpre vent
Ġen for
Ġfloor ing
ust r
stic ally
Ġtall er
Ġwin king
Ġwin ning
Ġwin ks
Ġday time
Ġear piece
Ġsmo ck
Ġex iting
Ġex ha
Ġgoal keeper
Ġrail way
zz led
Ġstar bu
Ġlean ed
Ġmat ador
Ġland ed
Ġstream ing
Ġsi pping
Ġsi ppy
Ġband s
Ġband age
Ġspe ckled
Ġdis gu
Ġcart on
Ġret ri
Ġret aining
Ġdes olate
Ġor nament
Ġcompet itor
Ġsu cks
Ġsu ited
Ġcyc le
Ġmar ina
Ġmar ried
Ġjo ust
Ġme and
Ġhar vest
Ġspo tters
Ġkis sed
iv an
Ġspr ings
Ġapp lies
Ġapp lying
ster n
Ġsub stance
Ġpass erby
Ġhur rying
Ġsqu ares
Ġhoo king
Ġvie ws
Ġbre at
Ġsunset s
Ġslo u
Ġslo ped
Ġslo ping
Ġneck ed
Ġsn ork
Ġpaper back
Ġdra w
Ġdra wn
Ġdra ft
Ġdra ped
Ġdra pped
Ġstra ining
Ġstra pless
Ġbun k
Ġwaters p
Ġtack ler
Ġshow ering
Ġpat rick
Ġmus her
Ġmus lim
Ġretrie vers
Ġbm w
Ġal co
Ġcre w
Ġcre ated
Ġpaddle d
Ġoppo se
ty pe
Ġring ing
Ġqu arters
Ġtun ic
Ġcrou ch
Ġboun ced
Ġtat tered
Ġfull y
Ġmicro phones
Ġtu gs
Ġaf ro
Ġaf ghan
Ġnet s
Ġind ia
Ġprote cts
Ġph ones
Ġph rase
Ġcont in
Ġwind y
Ġfil med
Ġhal o
Ġfore front
Ġafric ans
Ġpra irie
ron ment
Ġlick ed
che sted
Ġschool girl
Ġpack ages
Ġrough ly
ber y
Ġwait ress
Ġbur lap
Ġbur gund
Ġint ense
Ġdun k
Ġcard igan
Ġrod ent
Ġtug boat
Ġcla p
Ġcla ps
Ġcla use
Ġcricket er
Ġrap id
Ġmi x
Ġmi xed
Ġstroll s
Ġac cent
Ġwe ird
Ġwe stern
Ġtow er
Ġlab s
Ġlab eled
Ġ2 5
Ġatv s
Ġdecor ation
Ġdecor ations
sk ating
sk iing
Ġfan gs
Ġrub ble
Ġbound ary
Ġexp o
Ġexp anse
Ġsaf ely
Ġsaf ari
Ġfinger pain
os aur
Ġz o
Ġz ara
Ġent ang
Ġshadow ed
Ġtravel ling
Ġext ing
Ġcho ps
Ġsee m
Ġim ages
Ġparas urf
Ġrollerblad ers
Ġwra p
Ġwra ps
Ġmound s
Ġchest ed
Ġleaf s
Ġser ves
Ġser ved
Ġped al
Ġped als
Ġped aling
Ġju kebox
Ġpige on
Ġpeace ful
Ġcamp ground
Ġwar ing
Ġpun ch
Ġic ed
Ġwas hed
Ġdro o
Ġdesc ent
Ġheadscarf s
ot ic
Ġcoo ks
Ġdev ices
Ġdisc uss
Ġprotest ing
Ġgrocer ies
Ġ5 2
Ġinter tube
Ġinter racial
Ġgr illing
Ġpee k
Ġscar ed
Ġdef ensive
vie w
Ġmess ily
Ġmess enger
Ġhum mer
Ġvar ying
Ġbarrel s
Ġ1 0
Ġfarm ers
Ġchur ning
Ġaut omobile
Ġpan el
Ġpan ting
Ġfoam y
Ġmag ic
Ġvis or
Ġtile s
Ġdin osaur
Ġtour ist
Ġexam ines
Ġchalk board
Ġshoe less
Ġrollersk ater
Ġcolle ction
Ġcolle cts
Ġtub ing
Ġsla b
Ġsla m
Ġpen c
Ġpen gu
Ġru sh
Ġru gged
Ġspar se
Ġscr ubby
Ġeng aged
Ġsupp orts
Ġsupp orter
Ġke eping
Ġbill s
Ġchew ed
Ġident ically
Ġcran k
Ġbush y
Ġrecor der
Ġcomple ting
Ġcomple tes
Ġphotograp hing
Ġtouch down
Ġgrow ls
Ġbul let
Ġtrad e
Ġsprin t
Ġsprin ting
Ġreflection s
Ġaqu arium
Ġdon key
Ġant icip
Ġant enna
Ġevery one
Ġdrag sters
Ġparachut ist
Ġesc ape
Ġmis sed
Ġspi kes
Ġni bbling
Ġbever ages
Ġcobble d
Ġelev ated
Ġsimilar ly
ab ly
Ġcru st
Ġmusc le
Ġofficial s
Ġelectron ics
Ġbillboard s
po tties
Ġticket s
Ġcr umbling
Ġmel ted
Ġya wns
Ġsec ured
Ġbooks he
Ġpassen ger
Ġlabrad oodle
Ġextre mely
gu ards
ker chie
su ited
Ġwrist s
Ġtor so
Ġyork ie
Ġoverh anging
Ġlass ie
Ġheart s
Ġreg ion
Ġconf used
Ġshel ves
Ġsubmer ges
Ġtuss ling
Ġcook ies
Ġsquee ze
Ġgallo ps
Ġdemonstr ation
Ġdemonstr ates
Ġlear n
Ġsold iers
Ġfirefight ers
Ġspeak er
Ġintervie wed
Ġpriest s
vent ion
Ġbrow ses
Ġsar i
Ġinspe cts
Ġremo te
Ġremo ving
Ġvideot aping
Ġshrub bery
for d
Ġtet her
Ġsy rup
Ġdy e
Ġmin ivan
Ġfed ora
Ġnur sing
Ġang le
Ġgras ps
Ġem itting
Ġspan ish
Ġsunsh ine
Ġprop el
Ġspecial ized
Ġdalmat ians
Ġsaxo phones
Ġarab ian
Ġel se
Ġill ustr
Ġox en
Ġox ford
Ġocc upied
Ġsear ch
Ġsam ples
Ġfling ing
Ġcoast line
Ġlav ender
Ġbloss oms
Ġbloss oming
Ġpurch ase
Ġnoodle s
Ġskyd ivers
Ġattra ction
Ġappar atus
Ġhorsesho e
Ġcrev ice
Ġcompan ion
Ġaero dynam
Ġtooth brush
Ġswoo ping
flo or
lish ment
pers on
Ġab seiling
Ġawa iting
Ġsight se
Ġpens ke
Ġcrest s
Ġming le
Ġming ling
iss ance
Ġhun ched
Ġbass et
Ġeas el
Ġrapp elling
Ġkimon o
Ġkimon os
Ġbudd ha
Ġgot hic
Ġcomf ort
Ġtrek king
Ġparag l
Ġparag lider
Ġener giz
Ġinvestig ate
Ġcustom er
slee ved
ula ted
Ġado les
Ġpon chos
Ġpran cing
Ġpist ol
Ġfal con
Ġhump ing
Ġnip ple
Ġfrolick ing
Ġsmear ed
Ġclut ching
Ġrec ie
Ġreve aling
Ġhandic apped
Ġvac ant
Ġador ned
Ġencoura ging
Ġornam ental
Ġsquin ting
Ġstraddle s
Ġquiet ly
Ġzig zag
Ġtrans it
Ġolymp ics
Ġaccompan ied
bear ded
Ġump ire
Ġkey board
Ġtand em
Ġwre cked
Ġding hy
Ġdas chund
Ġdeter mined
Ġmard i
Ġgor ge
Ġdod ges
Ġmanne quins
Ġballpla yer
Ġeff ort
Ġestab lishment
Ġclust er
Ġsol itary
Ġsour ce
Ġsunbat he
Ġfacepain t
Ġcontemp la
Ġhundred s
Ġnovel ty
Ġenvi ronment
Ġmatt ress
Ġcramp ed
Ġmemor ial
Ġcontra ption
Ġwrink led
Ġhappen ing
Ġacce p
Ġweim aran
Ġzom bie
Ġenthus ia
Ġcroc s
Ġpolar is
Ġengulf ed
Ġactiv ity
Ġvegetable s
Ġpurchas ing
Ġawkward ly
Ġprison er
Ġghost bust
crack er
wom an
Ġign oring
Ġrena issance
Ġais le
Ġware house
hett i
Ġore gon
Ġsig ning
Ġsym bol
Ġdam aged
Ġdumb bell
Ġcert ific
Ġmcd onal
Ġrad io
Ġrund own
Ġlang uage
Ġnuzz ling
Ġbeca use
Ġholly wood
Ġult imate
Ġegre t
Ġperspe ctive
Ġlaund ry
Ġlago on
Ġlemon ade
Ġcarous el
Ġspee ch
Ġspag hetti
Ġbeachgo ers
Ġreind eer
Ġwaste land
Ġfavor ite
Ġscuff le
Ġvamp ire
Ġvint age
Ġleapfro g
Ġconfe rence
Ġlivest ock
Ġrestara unt
Ġexha ust
Ġburgund y
Ġfingerpain ts
Ġpengu ins
kerchie f
Ġenergiz er
0 8
a il
a ves
a way
a led
a ign
a ired
a ved
b l
b oo
b ling
b ather
b ase
b ics
c id
c if
c age
c ag
c ome
c ument
c upied
d an
d ra
d ers
d appled
e ing
e aster
e vil
f ing
f ood
f ive
f ashion
f ronts
f lip
g n
g as
g ist
g ym
g lider
h d
h n
h u
h am
h air
h adow
h aps
i y
i lding
i ke
i eld
i qu
l ifier
l ife
m i
m t
m art
m ark
m ill
m ble
m ans
m age
m ol
m uff
m ates
n c
n ment
n ial
n ical
n ational
o k
o w
o st
o ple
o ur
o ps
o und
o ugh
o ta
o ked
o rous
p end
p at
p ak
p ted
p ads
p oms
p aved
r d
r at
r iller
s m
s y
s hed
s pla
s chool
s ung
s aw
t he
t ra
t ers
t ion
t led
t urf
t ender
u ge
u ish
u late
v ar
v ro
v ul
v ien
w all
w ling
w eat
w are
w eds
w elling
w alks
w atch
x y
x es
y e
y ed
y ers
y ees
y lon
z on
z ard
z ance
z mat
Ġ :
Ġ er
Ġ id
Ġ king
Ġ ves
Ġ elf
Ġa wn
Ġa ge
Ġa ce
Ġa ri
Ġa li
Ġa ig
Ġa vro
in ating
ar ed
ar ist
st in
st ar
st or
st ra
st ard
st ion
st ep
st op
st acks
st ory
Ġt in
Ġt art
Ġt end
Ġt ying
Ġt ell
Ġt ambo
Ġt rous
Ġw id
Ġw on
Ġw el
Ġw ad
Ġw ran
Ġw est
Ġw icket
Ġb is
Ġb its
he ar
he re
he ld
he ve
Ġo t
Ġo ran
Ġo de
Ġs an
Ġs en
Ġs ip
Ġs ug
Ġs lice
Ġs ending
Ġs alm
Ġs ession
Ġs alt
Ġs ashes
Ġin ver
it led
re scent
Ġp r
Ġp um
Ġp am
Ġp iling
Ġp ong
Ġp roud
Ġd art
Ġd re
Ġd ear
Ġd ue
Ġd el
Ġd ie
Ġd up
Ġd uff
Ġd ads
Ġd aring
Ġd appled
Ġd welling
Ġd ared
er an
er al
er ves
an a
an cing
an ges
ro d
ro te
ro cks
ro ading
ro pes
ro bed
Ġc her
Ġc row
Ġc ub
Ġc iti
Ġc bs
le gs
Ġm p
Ġm y
Ġm ut
Ġm ate
Ġm ill
Ġm ills
is hing
is ies
Ġg n
Ġg ain
Ġg ay
Ġg ran
Ġg ird
Ġg iv
Ġg aur
Ġg lee
Ġdo o
Ġdo ugh
Ġdo ber
Ġdo lly
Ġdo zes
Ġdo cument
Ġon s
Ġon es
Ġon ce
Ġon com
Ġf id
Ġf ame
Ġf ru
Ġf ant
Ġf ring
Ġf erns
Ġh id
Ġh ack
Ġh ate
Ġh itter
ir ks
at ening
at ely
al o
al th
al ike
Ġdog gy
un kers
Ġand y
Ġr at
Ġr ite
Ġr um
Ġr ick
Ġr alley
Ġr immed
Ġr umm
Ġr itz
Ġman ner
Ġman tle
lo pe
lo yees
Ġst y
Ġst ood
Ġst iff
Ġst ance
Ġst ruck
Ġst ubby
Ġst ab
Ġst oops
Ġst ains
Ġst iped
Ġst ory
Ġst alks
en er
id ers
id ge
id walk
om ed
Ġbo ng
Ġbo ating
Ġbo hem
et ic
Ġto n
Ġto es
Ġto te
Ġto wing
Ġto ba
Ġto tter
all ing
all ic
ss ed
Ġpla cid
and el
or ks
or ies
or ary
or ds
Ġplay groud
Ġj r
Ġth ing
Ġth riller
ra in
ra ce
ra ils
Ġl ump
Ġl illy
Ġy ach
Ġy ong
Ġy arn
Ġy orks
ite ct
ite ment
ed ing
on t
ch y
ch ure
ch nic
ch ild
ch nical
ut s
ut ers
ut cracker
ut arist
Ġsh it
Ġsh am
Ġsh iner
Ġsh ielding
Ġsh orter
um e
um ed
Ġbla zer
oun g
red ible
no t
ers on
ers us
Ġat he
itt ery
ur ines
ur ated
ge st
Ġpe p
Ġpe er
Ġpe ir
Ġpe lic
Ġwater proof
Ġba ked
Ġba ggage
Ġpeople s
Ġn am
Ġn ad
Ġn as
Ġn ort
Ġn urs
Ġn ylon
Ġn utcracker
oo s
Ġchi ps
Ġchi ef
Ġchi cag
ce ment
Ġyoung ster
Ġan ime
Ġbe st
Ġbe la
Ġbe ck
Ġbe gs
Ġbe ats
Ġro o
Ġro se
Ġro man
Ġro ping
Ġro ot
Ġco t
Ġco y
Ġco spla
im ing
im mage
Ġsno op
Ġsnow p
Ġsnow ed
Ġsnow field
Ġsnow storm
Ġgra ze
Ġgra ppling
Ġho es
Ġho sed
Ġho ds
ile s
il ies
il ted
am ic
am eric
Ġfro n
Ġfro sting
Ġfro sty
Ġhis sing
ri or
ri pt
Ġlo an
Ġlo nel
Ġlo oming
el p
Ġsm u
Ġsm illing
Ġsm irks
ad ies
bo und
Ġout wards
Ġout run
Ġbi cy
Ġgrass land
Ġsk ins
Ġsk ids
Ġwal mart
Ġthrough t
Ġu w
Ġu ggs
Ġdown wards
Ġmo wn
ke pt
ke mon
se at
se mble
Ġsw e
Ġsw am
Ġsw erves
ain t
Ġgre n
to y
to ise
to uch
Ġover all
Ġover flow
Ġover cast
board s
Ġe gy
ic a
ic ular
Ġla s
Ġla kes
Ġla tte
Ġle ss
Ġle ts
Ġle vel
Ġle ngth
Ġpo ur
Ġpo ts
Ġpo ling
Ġpo ured
Ġpo tty
Ġpo uch
Ġpo wered
Ġpo kemon
Ġra fter
Ġra ys
Ġk art
Ġk io
Ġk aw
as ed
as aki
Ġback less
Ġback hand
Ġback seat
Ġrock star
Ġcar av
Ġcar olin
Ġcar ab
ack er
Ġyel l
Ġyel ls
Ġbu gg
Ġbu cked
Ġbu ckled
Ġbu zy
Ġbu oy
Ġher s
Ġcl ump
Ġcl ips
Ġsom body
Ġsom bre
Ġsp its
Ġsp itting
Ġsp ool
Ġsp ac
Ġsp arrow
Ġsp andex
Ġas k
Ġas ia
ght ened
Ġfor k
Ġfor ce
Ġfor wards
ress ive
ap h
Ġmouth ing
Ġmouth guards
Ġre ct
Ġre pla
Ġre ars
Ġre sp
Ġdress ing
Ġjumps uits
Ġne st
Ġne at
Ġne cks
Ġfo al
Ġfo ld
Ġfo und
row ing
Ġtra ys
Ġtra pped
Ġsur gical
Ġch art
Ġch ris
Ġch ins
Ġch allen
Ġch anging
Ġch anges
Ġch andel
Ġta ught
Ġso le
Ġso il
Ġso led
Ġso up
Ġso ggy
Ġwa ists
Ġwa vy
Ġmountain tops
Ġswim wear
ul ting
range ment
Ġhand ling
Ġhand kerchief
Ġhand held
Ġhand rails
Ġgo ver
Ġfa ced
Ġfa ith
pp ard
pp ie
pp ies
ct ured
Ġside line
Ġse ed
Ġse ction
Ġse per
Ġse mi
Ġse xy
Ġcat ho
Ġcat tle
Ġcat tails
cer c
Ġpool side
Ġpu ps
Ġpu dding
Ġpu zzled
by e
Ġtoy ota
Ġhead ress
Ġhead phone
Ġhead long
Ġhead lamp
Ġsand pit
Ġhi stor
Ġsun flowers
Ġsun tan
Ġsun bather
Ġclo ak
Ġclo aks
Ġar ri
Ġar ran
Ġar ray
Ġar rangement
Ġte x
Ġte ach
Ġte eter
Ġte chnical
Ġhold er
ps ons
Ġsl ur
Ġsl inging
Ġsl ender
Ġsl icker
Ġsl ices
Ġsl inky
cing s
Ġun man
Ġun crowded
Ġun paved
Ġma st
Ġhel ment
Ġhill top
Ġfour s
Ġblo om
Ġblo use
Ġblo ody
Ġpa wing
Ġpa ils
Ġtop ples
dle s
Ġswimm ies
Ġtan ned
Ġtan tr
pe ct
sh room
Ġsc oop
Ġsc ram
Ġsc oring
Ġcolo nial
Ġmot tled
Ġmu le
Ġmu stard
Ġmu shroom
Ġv en
Ġv iz
Ġv eter
Ġv ista
Ġv ersus
ho l
ho p
ho w
ho se
ho do
Ġmid get
Ġmotor cross
Ġdr ug
met al
Ġper ches
Ġper med
Ġper haps
Ġper pend
Ġbar ack
ey e
ey ed
Ġsit es
ph itheater
Ġcou ches
Ġwalk ers
Ġground ed
Ġfe els
Ġflo p
Ġflo pping
Ġflo rist
Ġflo rescent
do tted
ne sty
Ġgu ides
Ġcon o
Ġcon ver
Ġcon vien
Ġget tin
Ġdi ps
Ġdi vers
Ġcom mer
Ġlong slee
iff le
Ġsign als
Ġad d
Ġad vent
Ġad hd
Ġdan ger
Ġhigh school
Ġtre ats
Ġtre ading
Ġtre ated
Ġwi pe
Ġwi ped
Ġwi ener
Ġshe ppard
Ġri p
Ġri ce
Ġri pping
Ġri vers
Ġdark ly
Ġdark ness
Ġha zmat
Ġread ying
Ġfli ppers
Ġtable t
und ra
Ġcoll ision
Ġflow s
Ġbr illi
Ġdri fting
Ġfla ts
Ġfla shing
Ġbird cage
Ġam ount
Ġam ounts
Ġam phitheater
Ġam nesty
ant ic
Ġcap ri
Ġcap ture
Ġcap ris
Ġcap ped
Ġno ise
dd ed
Ġste al
Ġste pped
Ġste ady
Ġste adies
Ġve gas
Ġkick flip
ter ned
Ġoutf itted
Ġde w
Ġde mol
Ġsweat s
Ġsweat suit
Ġsweat band
co stum
co ated
co lor
Ġlea st
Ġset up
Ġbackpack ers
Ġsurround s
Ġsto pping
Ġsto cking
Ġbody suit
Ġca uc
Ġcan ned
Ġcan not
Ġfis he
Ġboard ed
Ġlight ed
eep ing
ip ers
Ġfire ball
Ġfire hose
Ġsky ward
Ġsha ft
Ġsha wls
Ġtur f
Ġpro pping
Ġpro cess
ep t
Ġforest s
wing s
Ġpast ry
ud ing
we iser
Ġgray hound
Ġpre ser
Ġpre car
Ġpre gn
Ġbear er
Ġsurfboard ing
Ġpoin ter
Ġen c
Ġen ough
Ġsled der
ug es
ma ging
ys et
Ġear muff
Ġtr immed
Ġpart ying
Ġpart ner
Ġbott led
Ġex it
Ġex per
Ġex otic
Ġex cerc
Ġgoal tender
Ġblow er
Ġsa u
Ġsa w
Ġsa ve
Ġatt ending
Ġatt aching
zz y
zz es
Ġcur l
Ġcur ling
Ġcur ls
Ġstore fronts
Ġbet ter
Ġmet ro
Ġmet allic
Ġcor ral
Ġoverloo ked
Ġstream er
Ġsi ps
Ġroller coaster
Ġlawn mo
Ġwinter y
Ġwinter time
Ġdis co
Ġdis heve
Ġcart oon
Ġret ail
Ġcra g
Ġcra zy
Ġcra fts
Ġcra zily
Ġwor ried
Ġsu ck
Ġcyc les
Ġmar ine
Ġmar que
Ġjo ke
Ġhar mon
Ġspo kes
Ġsil k
Ġsub ject
par ent
Ġpass age
Ġstun ning
Ġsqu ad
Ġhoo f
Ġhoo k
Ġhoo ker
Ġspra wled
Ġvie wing
Ġdoor bell
Ġdoor step
ons ored
Ġprepar ed
Ġrain ing
Ġpolice woman
ition s
Ġelder y
Ġstunt man
Ġscarf s
Ġlife vest
Ġdra gs
Ġdra ws
Ġhood ies
Ġstra ddling
Ġtent ed
Ġbow ed
Ġrestaur ants
Ġform ed
Ġpat ron
Ġcle ans
Ġmus hing
Ġref use
Ġref ere
Ġref resh
Ġretrie ved
Ġtri ed
Ġtri ke
Ġtri als
Ġtri bal
Ġban gs
Ġban jo
Ġter min
Ġal ter
Ġcre ates
Ġbull hor
Ġele ment
Ġele ction
Ġele ven
ane ous
Ġring ed
Ġdance floor
Ġstat ute
Ġqu ilted
Ġdu ke
Ġbare chested
Ġboun cer
Ġsports wear
Ġpaint brush
op er
Ġtu xes
Ġmon itors
Ġlog os
mo s
mo tion
Ġhome base
Ġgri ps
Ġnet ted
Ġind ians
Ġind esc
Ġprote ster
Ġph ys
Ġdig ger
Ġkn itted
Ġslee k
Ġfun eral
Ġwind mill
Ġspeed os
Ġspeed boat
Ġfil ming
Ġwhi el
Ġwhi ps
Ġwhi pping
Ġpadd lers
Ġhal ves
Ġfore ign
Ġfore arm
Ġphotograph y
Ġfri ghtened
Ġfair ies
Ġpra yer
ron ized
Ġgarden ing
rist ine
che l
Ġschool child
Ġpet als
Ġpet erson
Ġonloo ker
Ġsniff ed
Ġpack age
Ġrough hou
Ġway s
Ġemp loyees
Ġstret cher
Ġheadband s
Ġtro oper
stre wn
stre am
Ġbur sting
Ġbur rowing
Ġdire ctor
Ġcast les
Ġtw ent
Ġmotorbi ker
Ġmed it
Ġmed al
Ġhalf way
Ġac cross
Ġac cess
Ġwe ights
Ġbro ok
Ġbro chure
Ġtow ers
Ġtow els
Ġ2 1
Ġcol lage
Ġhay stack
Ġcheck er
Ġfan ny
Ġamuse ument
Ġexp os
Ġcraw l
Ġz a
Ġent itled
Ġgian ts
ens ils
Ġgl ances
Ġgl ancing
Ġgl ittery
sp onsored
Ġdust ed
Ġstud ent
Ġstud ies
Ġstart led
Ġinc redible
Ġcho w
Ġcho ir
Ġcho ke
Ġguard ed
Ġguard rail
Ġim p
Ġim person
Ġeye glasses
Ġappro ached
Ġrollerblad e
Ġconstru cted
Ġchest s
Ġparticip ant
Ġgar ment
Ġju ggle
Ġpig let
Ġcamp aign
Ġgro ve
Ġstring ed
Ġparasa ilor
Ġpun ting
Ġpun ctured
Ġpony tails
ang les
ang ular
Ġstump s
Ġsail board
Ġsail boats
Ġmirro red
oc cupied
Ġic ing
Ġbra ss
Ġbra ke
Ġdesc end
Ġlay er
Ġnot ice
Ġprin cess
Ġpuck ering
Ġ5 8
Ġti pped
Ġinter cept
Ġinter ior
Ġinter national
Ġgr and
Ġfree style
Ġfather s
Ġpee ing
Ġgolf ers
Ġdef end
Ġpatch y
Ġtight ly
Ġhum ans
Ġlu cky
Ġvar ied
Ġ1 1
Ġsli ppers
Ġsli ppery
Ġport ion
Ġport land
Ġda le
Ġda isies
Ġcro cks
Ġcro che
Ġcro oked
Ġfarm land
Ġattack s
Ġattack ed
Ġaut o
Ġtime out
Ġvis itors
Ġcelebr ation
Ġcontain ers
Ġpin wheel
Ġpin stri
Ġthin king
Ġbeam s
Ġexc ers
Ġexc itement
Ġshower head
Ġinner tub
Ġwild e
Ġwild ly
Ġpitcher s
Ġcolle cting
Ġcolle cted
Ġsword fight
Ġstomach s
hood ed
Ġ8 4
Ġaim ed
Ġtub es
Ġtub ular
Ġpen zance
Ġfr illy
Ġru gs
Ġstu dded
Ġspar sely
Ġscr immage
Ġeng lish
Ġeng aging
Ġsupp orting
Ġsupp orted
Ġfle a
Ġfle w
Ġfle es
Ġfle xing
Ġyo ug
Ġbrun ettes
Ġbagp ipers
Ġpedest al
Ġlaun ched
Ġlaun cher
Ġcomple x
Ġpres idential
Ġbathroom s
Ġdaught ers
Ġgentle men
Ġsim psons
Ġfar mer
Ġtoo k
Ġfisher men
Ġcontro ls
Ġbinoc ular
Ġweat hered
Ġcal ico
Ġmural s
Ġdon ning
Ġlink ed
Ġant lers
Ġant ique
ection ately
Ġartist ic
Ġesc orted
Ġwand s
Ġsat urated
Ġsat chel
Ġdump ing
Ġmall ard
Ġgoo gles
Ġspi ke
Ġplan eta
Ġdrawing s
Ġquarter pipe
Ġswords man
Ġexcited ly
hand led
Ġpy lon
Ġpy rote
Ġtool box
Ġni pping
Ġattent ive
Ġattent ively
Ġinclud es
Ġcru ise
Ġcru iser
Ġcru cif
Ġfashion ably
Ġlimb s
Ġbad ges
Ġbicyc ling
Ġbicyc lers
Ġheav yset
Ġheaddress es
Ġwindows ill
Ġworks hop
Ġcannon ball
po tty
po int
Ġcr ates
Ġmel ts
Ġnice ly
Ġposs ible
Ġposs ib
Ġarch itect
Ġdang les
Ġfurn ace
Ġyouth s
Ġbulldo gs
Ġnavig ate
fi ves
Ġwrist watch
Ġbump s
Ġgood s
Ġgood bye
Ġtor toise
Ġreg alia
Ġmustac hed
Ġconf ronts
Ġcomm uters
Ġshel tered
Ġmarsh y
Ġexplo ring
Ġsquee zes
Ġcobblest ones
Ġcharact er
pain ted
ste m
Ġfin al
Ġfin ley
Ġoutc rop
Ġlear ns
Ġpop ulated
Ġkno w
Ġkno cks
Ġkno tted
Ġkno cked
Ġtwist ed
Ġintervie wing
iver ing
Ġwo und
Ġbrow se
ret te
Ġfist s
Ġrece ive
Ġrece iving
Ġremo ves
Ġfoc uses
Ġtravers e
Ġtravers ing
Ġobsc uring
Ġspout s
Ġdrain age
Ġvideot apes
Ġdachshund s
Ġig no
Ġavo iding
Ġsy nch
Ġsy stem
Ġmin imal
Ġmain tain
Ġgen etic
Ġgna ws
Ġfed ex
Ġthre atening
Ġang ry
Ġgras ping
Ġmout ain
Ġgreet s
Ġgreet ing
Ġprop elled
Ġplu gging
Ġsnar ls
Ġsnap ping
Ġeyeb row
Ġbrace lets
Ġkeep er
Ġsuper v
Ġacrobat ics
Ġskyscra pers
Ġel bow
Ġill umin
Ġaband on
Ġtil ts
Ġocc asion
Ġsam sung
Ġinvol ved
Ġbon fire
Ġjud ges
Ġcond itions
Ġcoast ing
Ġmoon walk
Ġlav ish
Ġunf ur
Ġvictor ian
Ġpursu ing
Ġnote boo
Ġskyd iver
Ġskyd iving
Ġmex ico
Ġappar el
Ġpiercing s
Ġcolum ned
Ġnewly weds
Ġaero bat
Ġaero bics
Ġvaul ts
Ġpossession s
Ġlunch box
flo ps
zag a
Ġque en
Ġque stion
Ġawa it
Ġtap ing
Ġodd ly
Ġsal var
Ġpens ive
Ġhun ter
Ġrapp els
Ġbudd ist
Ġspir it
Ġrecl ines
Ġrecl ining
Ġrecl iner
Ġsequ ins
Ġcomf orting
Ġener gy
Ġpilo t
Ġpilo ts
Ġpilo ting
Ġdesign s
Ġdesign ed
Ġcontroll ing
Ġinvestig ates
Ġcustom ers
Ġtumble s
Ġtumble weed
Ġsin king
Ġsin ks
Ġpran ces
Ġpist e
Ġmount ed
Ġmount ian
Ġglow ing
Ġfal se
Ġfrolick s
Ġfind s
Ġpocket s
Ġclut ches
Ġhandic ap
Ġvac ation
Ġconfront ation
Ġornam ents
Ġsquin ts
Ġtatoo s
Ġtatoo ed
Ġprotect ors
Ġtwig s
Ġacc ents
Ġacc ident
Ġwea ves
Ġwea ving
Ġweb site
Ġbroad ly
Ġbroad way
Ġ28 1
Ġgrim aces
Ġgrim acing
Ġgaze bo
Ġdonut s
Ġtrans parent
Ġolymp ic
Ġconcentr ation
Ġconcentr ates
blo ck
surf ing
Ġut ensils
Ġagg ressive
Ġga uges
Ġstro ng
Ġstir s
Ġbell bott
Ġrot weiler
Ġgrap ple
Ġgrap hic
Ġladle s
Ġpoor ly
Ġbuff alo
Ġrecre ation
Ġrecre ational
Ġpuff s
Ġdirtbi kers
Ġheadwra p
Ġheadwra ps
Ġfeat uring
Ġfeat ures
Ġcons umed
Ġamaz ing
Ġameric a
Ġameric ans
Ġkickbox ing
Ġcanad a
Ġcanad ian
Ġmeas ured
Ġbreast s
Ġsnu ggles
Ġsnu ggling
Ġshowgirl s
Ġtriang le
Ġtriang ular
Ġalb um
Ġalb ert
Ġbullfight er
Ġcasc ading
Ġcasc ades
Ġsnowmob iling
Ġsnowmob iler
Ġscrub land
Ġscrub bing
Ġflex ible
Ġisrael i
Ġstaff ords
Ġunders ide
Ġunders hirt
Ġur inating
Ġax e
Ġaff ectionately
Ġamp lifier
Ġastro turf
Ġtear s
Ġinform ation
Ġther mos
Ġpal ying
Ġpear ls
Ġpane led
Ġdav id
Ġcel lo
Ġciv il
Ġcyli nder
Ġmad ly
Ġmul ch
Ġgon zaga
Ġdodge ball
Ġfre ak
Ġfer ris
Ġhom es
Ġstee red
Ġyanke e
Ġshut ters
Ġner f
Ġcock pit
Ġgraf itti
Ġlongh aired
Ġmos que
Ġever green
Ġeast pak
Ġbackb ends
Ġbystand ers
Ġbud weiser
Ġcli pped
Ġspel unkers
Ġrele ased
Ġreco ils
Ġrevie wing
Ġreenact ment
Ġsepar ate
Ġtext ing
Ġfootbr idge
Ġmuff s
Ġital y
Ġdiv ided
Ġhus ks
Ġsheper d
Ġflu ore
Ġdeb ris
Ġenfor cement
Ġstarbu cks
Ġdisgu ises
Ġjoust ing
Ġmeand ering
Ġharvest ed
Ġbreat hing
Ġslou ching
Ġsnork el
Ġalco hol
Ġcontin ue
Ġschoolgirl s
Ġrapid ly
Ġaccent ed
Ġexpo sing
Ġzo oming
Ġentang led
Ġexting uish
Ġparasurf er
Ġdroo ling
Ġ10 4
Ġautomobile s
Ġpenc il
Ġbookshe lf
Ġillustr ation
Ġaerodynam ic
Ġsightse eing
Ġadoles cent
Ġrecie ving
Ġgorge ous
Ġcontempla tes
Ġaccep ts
Ġweimaran er
Ġenthusia stically
Ġghostbust ers
Ġcertific ates
Ġmcdonal ds
bl ue
dan cer
easter n
fashion ed
vul can
weat her
zon a
Ġves sel
Ġawn ings
Ġari zona
Ġavro vulcan
Ġtart an
Ġtambo urines
Ġtrous ers
Ġwad ers
Ġode on
Ġsen ior
Ġsug gest
Ġsalm on
Ġinver ted
Ġpum a
Ġpam ph
Ġdie go
Ġduff el
Ġdared evil
Ġcher ry
Ġgird er
Ġgiv en
Ġgaur d
Ġdough nut
Ġdober mans
Ġoncom ing
Ġfring e
Ġhid den
Ġrum maging
Ġrick ety
Ġstab s
Ġbong o
Ġyorks hire
chnic s
Ġsham rocks
Ġpelic ans
Ġnad al
Ġnas car
Ġnort h
Ġnurs ery
Ġchicag o
Ġsnoop y
Ġlonel y
Ġkio sk
Ġkaw asaki
Ġcarav an
Ġcarolin a
Ġcarab iner
Ġsombre ro
Ġresp ond
Ġchallen ge
Ġchandel ier
Ġcatho lic
Ġhistor ic
Ġsunbather s
Ġunman ned
Ġtantr um
Ġscram ble
Ġveter an
Ġperpend icular
Ġcommer cial
Ġlongslee ve
Ġdanger ous
Ġbrilli ant
Ġdemol ished
costum ed
Ġprecar iously
Ġpregn ant
Ġearmuff s
Ġlawnmo wer
Ġdisheve led
Ġmarque e
Ġharmon ica
Ġpatron s
Ġrefere es
Ġrefresh ment
Ġtermin al
Ġbullhor n
Ġindesc ript
Ġschoolchild ren
Ġroughhou sing
Ġaccess ories
Ġparasailor s
Ġpinstri pe
Ġinnertub es
Ġpyrote chnics
Ġpossib ly
Ġarchitect ural
Ġsynch ronized
Ġillumin ated
Ġnoteboo k
Ġbellbott oms
Ġstaffords hire
